<unk>	0
<s>	0
</s>	0
.	-3.40925
▁	-3.43895
을	-3.85174
의	-3.93619
에	-4.21533
이	-4.30459
를	-4.3225
는	-4.36529
가	-4.4519
은	-4.56782
,	-4.63161
고	-4.65763
에서	-4.98062
로	-5.07666
한	-5.08454
”	-5.24731
▁“	-5.25738
인	-5.27316
일	-5.33896
)	-5.42334
(	-5.43298
과	-5.44139
▁이	-5.50243
와	-5.60814
으로	-5.60848
▁있다	-5.65888
지	-5.66378
▁수	-5.73322
도	-5.73852
할	-5.77061
했다	-5.85256
▁밝혔다	-5.88584
▁말했다	-5.90575
년	-5.94853
하고	-5.95234
다	-5.96555
하는	-6.05626
▁있는	-6.08916
기	-6.1391
리	-6.15073
▁그	-6.15712
▁전	-6.1599
자	-6.16279
며	-6.18414
스	-6.19363
해	-6.20953
▁2	-6.29566
▁그는	-6.29648
된	-6.31895
▁1	-6.32486
만	-6.33307
▁대한	-6.38981
▁위해	-6.40921
월	-6.42391
▁전했다	-6.4764
▁미국	-6.50084
▁한	-6.50898
▁미	-6.51469
▁3	-6.53178
▁이번	-6.54899
▁중	-6.54948
▁지난	-6.56613
시	-6.58208
현지시간	-6.58354
라	-6.59195
에게	-6.63884
나	-6.65394
▁대해	-6.66462
"	-6.68258
사	-6.68777
어	-6.69685
주	-6.71356
s	-6.72286
▁것으로	-6.73498
▁‘	-6.74523
트	-6.78005
명이	-6.78468
▁것이라고	-6.79122
▁것	-6.79281
게	-6.80164
이라고	-6.80328
▁4	-6.81284
▁"	-6.81284
들이	-6.82018
드	-6.82495
▁있다고	-6.85436
하기	-6.87216
대	-6.87367
수	-6.8837
▁것을	-6.88718
▁6	-6.88755
서	-6.89666
르	-6.89919
▁이라크	-6.90496
▁주	-6.90604
아	-6.90737
▁5	-6.91204
적인	-6.91778
히	-6.93822
하지	-6.93883
’	-6.94154
세	-6.9435
상	-6.96708
▁더	-6.9891
▁그러나	-6.99306
들은	-7.02891
하게	-7.02979
▁다른	-7.03474
▁대통령	-7.03577
운	-7.03639
적	-7.04628
부	-7.05505
▁중국	-7.05722
하	-7.06982
비	-7.07581
e	-7.09436
치	-7.11359
▁10	-7.12272
명	-7.12286
▁한편	-7.12417
라고	-7.12562
던	-7.13159
전	-7.15017
원	-7.15557
▁북한	-7.15739
성	-7.15769
프	-7.16581
▁후	-7.16987
▁내	-7.1704
-	-7.18081
소	-7.18241
명의	-7.18553
▁바	-7.20116
미	-7.20913
됐다	-7.20954
정	-7.21745
8	-7.22806
▁이후	-7.22974
했다고	-7.23649
▁아	-7.24359
크	-7.24397
선	-7.24517
▁7	-7.24537
▁정부	-7.2455
▁영국	-7.2486
▁한국	-7.28067
▁통해	-7.28088
▁8	-7.28607
▁알	-7.28673
니	-7.28723
마	-7.29153
보	-7.29162
▁제	-7.29398
▁일	-7.30051
▁두	-7.31061
▁많은	-7.31197
▁또	-7.3162
이다	-7.31645
위	-7.31667
▁위한	-7.32248
▁대통령은	-7.32506
될	-7.32517
장	-7.33458
▁부시	-7.34472
진	-7.34544
화	-7.34632
야	-7.34729
▁관련	-7.36058
▁등	-7.36311
▁가장	-7.36643
▁비	-7.37259
▁동안	-7.38003
까지	-7.38131
오	-7.38602
▁같은	-7.39321
▁것이다	-7.39348
▁대변인은	-7.4073
분	-7.41071
▁대	-7.41303
에는	-7.4186
면	-7.42041
당	-7.42054
바	-7.42294
조	-7.42817
국	-7.43332
개	-7.43712
▁유	-7.43926
제	-7.43991
2	-7.44595
들을	-7.44696
디	-7.44852
▁지	-7.45033
▁약	-7.45399
▁나	-7.47079
▁시	-7.47267
했으며	-7.47393
▁사	-7.48181
▁세계	-7.48257
파	-7.48599
▁말	-7.49543
하며	-7.49879
▁부	-7.49995
▁주장했다	-7.50066
▁문제	-7.50659
▁오바마	-7.51613
1	-7.52505
▁때	-7.52631
▁될	-7.52655
내	-7.52892
적으로	-7.53245
우	-7.53378
즈	-7.53398
▁것은	-7.53602
▁9	-7.53747
간	-7.53982
▁영화	-7.54848
▁할	-7.55245
▁한다	-7.55356
타	-7.55552
▁또한	-7.55651
▁뒤	-7.55659
▁오	-7.56002
▁정	-7.56118
▁12	-7.56171
▁마	-7.56196
▁조사	-7.57295
▁현재	-7.57408
▁것이	-7.58367
구	-7.5882
▁경제	-7.58929
▁최근	-7.59057
▁경우	-7.60082
▁보도했다	-7.60182
여	-7.60516
▁일본	-7.60727
들	-7.60964
▁덧붙였다	-7.61264
레	-7.61348
▁공격	-7.6144
▁이상	-7.61678
6	-7.61962
▁반	-7.62068
▁않았다	-7.62152
▁있었다	-7.62282
및	-7.62398
차	-7.62574
d	-7.62897
식	-7.63313
A	-7.63322
▁19	-7.63421
러	-7.63485
o	-7.63575
에서는	-7.63933
▁불	-7.64062
그	-7.6428
용	-7.64749
▁국가	-7.65057
한다	-7.65083
려	-7.65346
▁보	-7.65693
했던	-7.65985
단	-7.66393
유	-7.66557
'	-7.66973
▁무	-7.66985
었다	-7.6716
권	-7.67296
▁11	-7.67451
문	-7.67651
약	-7.6794
▁20	-7.68197
▁일부	-7.68542
티	-7.69456
▁자신의	-7.69625
▁안	-7.70057
▁해	-7.70548
▁거	-7.70935
a	-7.70967
3	-7.71366
▁공	-7.71664
관	-7.71947
▁함께	-7.72657
m	-7.73315
신	-7.73697
브	-7.74036
하다	-7.74383
▁하	-7.74598
▁기	-7.74641
▁조	-7.74787
▁했다	-7.7486
▁당시	-7.74933
모	-7.75017
카	-7.7542
계	-7.7545
안	-7.75547
▁'	-7.75552
▁재	-7.75794
▁계속	-7.764
▁다	-7.76427
▁새로	-7.76842
▁모든	-7.77447
▁파	-7.77512
▁그리고	-7.77576
방	-7.77658
▁후보	-7.78067
노	-7.783
▁없다	-7.78651
회	-7.7914
▁때문에	-7.7927
실	-7.79289
직	-7.79556
코	-7.79913
보다	-7.79954
해야	-7.80091
호	-7.80226
▁미군	-7.80646
S	-7.80961
▁파키스탄	-7.81132
무	-7.81212
▁예정이다	-7.81655
▁수도	-7.8209
린	-7.82379
▁상	-7.8247
▁자	-7.82975
억	-7.82985
▁프랑스	-7.83273
▁모두	-7.83461
▁있습니다	-7.83551
▁지원	-7.83602
▁설명했다	-7.83717
▁몇	-7.84605
▁결과	-7.84664
▁러시아	-7.85012
▁신	-7.85079
▁구	-7.85756
▁계획	-7.85766
▁있으며	-7.85771
▁이스라엘	-7.85845
▁경찰	-7.85981
체	-7.86582
▁모	-7.86633
▁경찰은	-7.87007
산	-7.87548
▁지역	-7.87924
점	-7.87952
토	-7.87997
▁세	-7.88108
물	-7.88201
▁클린턴	-7.88678
▁카	-7.89009
▁유엔	-7.89398
질	-7.89616
▁정부는	-7.90397
▁민주당	-7.91175
경	-7.91436
▁테러	-7.922
▁도	-7.92223
▁큰	-7.92601
▁피	-7.92895
▁우리	-7.92925
C	-7.93062
법	-7.93495
▁사고	-7.93529
▁결정	-7.93749
▁선거	-7.93846
▁연구	-7.94081
▁여성	-7.94434
▁성	-7.94967
동	-7.95063
▁30	-7.95067
7	-7.95297
▁데	-7.95462
▁핵	-7.95597
들의	-7.95763
피	-7.9589
더	-7.9637
학	-7.96471
명을	-7.96586
▁군	-7.96875
u	-7.96877
연	-7.97011
되는	-7.9712
감	-7.97171
▁지난해	-7.97198
길	-7.97602
y	-7.97619
에따르면	-7.97784
▁이들	-7.97821
력	-7.9787
▁시작	-7.98223
에도	-7.98265
▁강	-7.98369
▁않을	-7.98492
5	-7.99333
▁열린	-7.99461
▁줄	-7.9985
했습니다	-7.99861
교	-8.0007
▁달러	-8.00191
▁발표	-8.00215
▁방문	-8.00222
지만	-8.00321
▁당	-8.00434
▁경기	-8.00568
▁대통령이	-8.00724
공	-8.01129
c	-8.01158
▁달	-8.01542
▁이란	-8.0169
버	-8.01713
라는	-8.0196
▁올해	-8.02221
▁스	-8.02573
i	-8.03226
▁양	-8.03797
루	-8.0394
▁배	-8.04004
▁발생한	-8.04091
▁있을	-8.0428
▁A	-8.04301
▁이날	-8.04346
▁물	-8.04424
▁총리는	-8.04614
t	-8.04674
▁하는	-8.04731
으며	-8.04794
데	-8.04827
▁원	-8.04958
▁소	-8.05174
행	-8.05287
n	-8.0529
▁the	-8.0554
▁노	-8.05563
▁15	-8.05956
▁발표했다	-8.0618
란	-8.06191
키	-8.06195
시간	-8.06887
도록	-8.07161
중	-8.07293
p	-8.07358
심	-8.07448
▁리	-8.07929
재	-8.08125
▁초	-8.08198
▁발	-8.08292
▁받고	-8.08469
슨	-8.08923
난	-8.09457
D	-8.09637
▁(	-8.0991
▁실	-8.1005
살	-8.1011
▁회담	-8.10365
이나	-8.10505
하면서	-8.10792
▁채	-8.10852
▁국제	-8.10978
▁총리	-8.11075
▁존	-8.11134
l	-8.11368
▁서	-8.11492
터	-8.11668
▁지지	-8.11825
군	-8.11861
▁유럽	-8.11909
하여	-8.11934
▁총	-8.1235
▁관계	-8.13156
았다	-8.13432
4	-8.13669
포	-8.13851
되고	-8.14047
▁to	-8.14108
▁가운데	-8.14156
▁미국의	-8.14581
▁16	-8.14678
P	-8.14867
▁아프간	-8.15552
▁라	-8.15798
▁간	-8.15843
들에게	-8.159
▁타	-8.16097
r	-8.16107
▁기록	-8.16268
▁조치	-8.16309
▁주장	-8.16773
종	-8.16984
▁첫	-8.17027
▁S	-8.17092
역	-8.17245
▁개	-8.17294
▁of	-8.17606
▁위	-8.18067
▁포	-8.18102
면서	-8.18146
▁의해	-8.18164
▁18	-8.18174
▁아이	-8.18624
▁된다	-8.18813
워	-8.18826
▁인도	-8.18865
▁입	-8.19
▁매	-8.19042
▁주요	-8.19089
부터	-8.19246
▁사건	-8.19273
든	-8.19317
▁차	-8.19372
▁프로그램	-8.19732
▁정부가	-8.1989
▁사람들이	-8.19899
건	-8.20188
임	-8.20256
▁시위	-8.20682
)’	-8.20835
▁다시	-8.21029
요	-8.21118
였다	-8.21191
▁감독	-8.21319
ing	-8.21432
▁인해	-8.21468
▁차량	-8.21727
▁승리	-8.21802
▁보고	-8.22059
▁코	-8.22079
되어	-8.22079
입니다	-8.22499
형	-8.22551
▁동	-8.23102
▁회사	-8.23263
ed	-8.23345
▁않은	-8.23562
▁어	-8.23712
설	-8.23747
▁13	-8.23986
er	-8.24057
▁투표	-8.24426
▁여	-8.24609
▁선	-8.24619
▁열	-8.24688
석	-8.25144
발	-8.25605
▁예정	-8.25646
▁하고	-8.25656
▁있다는	-8.25696
거	-8.25772
돼	-8.25864
▁피해	-8.25954
▁혐의로	-8.25985
▁우	-8.26095
번	-8.27116
네	-8.2728
▁사람들	-8.27438
M	-8.27452
▁시간	-8.27675
▁활동	-8.27744
▁혐의	-8.27931
▁반대	-8.28342
저	-8.28409
들과	-8.28513
배	-8.2855
▁중단	-8.28746
▁독일	-8.2876
▁협상	-8.28853
▁전쟁	-8.28856
▁산	-8.29019
9	-8.29075
▁생각	-8.29144
반	-8.2918
▁합의	-8.29241
두	-8.29275
▁됐다	-8.29429
품	-8.29513
되지	-8.29555
f	-8.29556
장은	-8.29562
▁14	-8.29601
al	-8.29812
스트	-8.29886
▁시장	-8.29915
▁상원의원	-8.29929
▁외	-8.30255
▁이미	-8.3074
▁메	-8.30783
▁대학	-8.30973
▁호주	-8.31229
래	-8.31345
g	-8.31466
km	-8.31695
▁위치한	-8.31721
▁받았다	-8.31898
▁관리	-8.32039
▁대선	-8.32053
▁경	-8.32171
▁뉴욕	-8.32388
▁명	-8.32587
▁in	-8.32614
▁탈레반	-8.32621
료	-8.32777
▁우려	-8.32788
▁연	-8.32803
/	-8.32939
년간	-8.33067
▁팔레스타인	-8.33311
▁W	-8.33573
금	-8.33682
▁없는	-8.33978
▁호	-8.34108
▁페	-8.34349
달러	-8.34407
▁여러	-8.34548
병	-8.34787
▁우주	-8.34822
습니다	-8.34867
론	-8.35142
달	-8.35323
▁최고	-8.35337
I	-8.35613
▁아직	-8.35718
청	-8.358
▁조지	-8.35934
▁내용	-8.36151
▁TV	-8.36277
됐다고	-8.36754
너	-8.37035
▁소속	-8.37114
▁새	-8.37191
이라며	-8.37302
▁잘	-8.37669
민	-8.3767
통	-8.37708
an	-8.3773
▁추가	-8.37999
로부터	-8.38075
▁연방	-8.38242
▁25	-8.38286
급	-8.38297
작	-8.3839
▁사실을	-8.38517
▁레	-8.38528
▁점	-8.38795
▁단	-8.38801
▁위협	-8.38951
E	-8.38963
▁매케인	-8.3952
이며	-8.3966
▁17	-8.39687
▁관계자는	-8.39766
속	-8.40084
▁사용	-8.40154
▁남	-8.40214
▁않고	-8.40409
▁포함	-8.40679
지는	-8.40697
▁확인	-8.40714
▁노력	-8.40896
▁방송	-8.41085
▁많	-8.41251
릴	-8.41342
생	-8.41422
▁인터넷	-8.41578
판	-8.41665
▁지적했다	-8.41688
▁''	-8.41725
▁맞	-8.41728
▁이용	-8.42089
▁적	-8.42131
▁한다고	-8.42397
▁저	-8.42435
▁버	-8.42531
▁석방	-8.42536
류	-8.42604
▁지금	-8.42744
▁도시	-8.42755
▁장	-8.42844
▁이슬람	-8.43069
▁남부	-8.4338
?	-8.43392
▁판매	-8.4346
▁사이	-8.43482
▁인근	-8.43793
▁비난	-8.43796
T	-8.43804
ar	-8.43852
▁사진	-8.43929
클	-8.44016
▁정치	-8.44085
▁사람	-8.44163
출	-8.44243
▁매우	-8.44244
했었다	-8.44385
▁당국	-8.44446
▁폭발	-8.44742
N	-8.44892
▁올림픽	-8.4524
스는	-8.45315
▁기술	-8.45371
▁심	-8.45452
▁하나	-8.4546
천	-8.45485
다고	-8.45485
범	-8.45506
▁개발	-8.45646
▁당국은	-8.45825
▁보도	-8.45868
▁입장	-8.45943
▁대부분	-8.4606
▁볼	-8.46091
▁김	-8.46093
▁발견	-8.46282
츠	-8.4634
온	-8.46417
or	-8.46568
▁사망	-8.46663
in	-8.46818
▁증가	-8.46896
했지만	-8.47071
▁부상	-8.4717
에따라	-8.47346
개월	-8.47422
량	-8.4752
했고	-8.47552
▁감	-8.4779
▁없다고	-8.47878
▁이어	-8.47914
양	-8.47961
▁명의	-8.48021
▁살	-8.48116
된다	-8.48138
▁B	-8.48166
▁올	-8.48237
▁정책	-8.48312
0	-8.4859
▁2006	-8.48675
위원회	-8.48695
▁받은	-8.48748
▁자동차	-8.49058
F	-8.49109
처럼	-8.49395
색	-8.49459
▁못했다	-8.49475
▁않는다	-8.49537
K	-8.49542
%	-8.49575
▁손	-8.4971
되었다	-8.49995
▁이는	-8.50023
▁100	-8.50145
▁24	-8.50188
결	-8.50208
보기	-8.50309
▁준비	-8.50795
퍼	-8.51019
증	-8.5103
▁루	-8.51068
강	-8.51672
▁날	-8.51954
▁남자	-8.52219
▁성명	-8.52248
▁어떤	-8.52351
▁생산	-8.52379
▁집	-8.52403
▁평화	-8.5247
▁발생	-8.52627
▁C	-8.5279
▁가족	-8.52851
▁오늘	-8.52877
베	-8.52941
편	-8.53002
▁금융	-8.53005
했으나	-8.53015
▁기자	-8.53256
▁건물	-8.53421
날	-8.53676
▁폭탄	-8.53792
▁21	-8.539
친	-8.53926
▁하지만	-8.54035
▁이름	-8.542
▁있던	-8.54271
▁베	-8.54538
울	-8.54574
▁오후	-8.54709
개의	-8.5487
메	-8.54956
▁지도자	-8.55068
G	-8.55125
▁교	-8.55153
이었다	-8.55169
▁2005	-8.55176
하기로	-8.55214
▁해결	-8.55289
명은	-8.55338
▁언론	-8.55807
▁P	-8.55892
▁50	-8.56106
B	-8.56285
▁의사	-8.56319
▁방법	-8.5657
▁원문기사	-8.56675
en	-8.5688
▁27	-8.57089
▁검찰	-8.57116
▁23	-8.57201
▁미얀마	-8.58004
▁M	-8.58168
하는데	-8.58224
▁22	-8.5828
▁법	-8.58346
▁법원	-8.58355
▁변화	-8.58401
▁앞서	-8.586
▁공개	-8.58602
▁공화당	-8.58603
▁대표	-8.58727
와의	-8.5877
▁행사	-8.58786
▁필요	-8.58836
▁상태	-8.5889
▁토	-8.58905
처	-8.59023
▁안전	-8.59031
영	-8.59171
▁북부	-8.59236
▁분	-8.59259
▁이에	-8.59282
립	-8.59422
▁있어	-8.59479
복	-8.59584
▁보호	-8.59601
▁방	-8.59753
▁만	-8.59976
▁종	-8.60104
▁건강	-8.60365
▁하지	-8.60426
격	-8.60526
▁치료	-8.60611
▁인터뷰에서	-8.60649
▁병원	-8.60692
절	-8.61243
▁T	-8.61286
▁컴퓨터	-8.6129
b	-8.61302
:	-8.61526
▁강조했다	-8.61644
▁다음	-8.61647
는데	-8.61709
▁상승	-8.61786
합	-8.61856
▁단체	-8.62084
▁갖고	-8.62113
테	-8.62143
▁아시아	-8.62175
기를	-8.62379
▁이러	-8.62501
▁그들은	-8.62589
▁살해	-8.627
▁현	-8.627
▁납치	-8.62728
▁처음	-8.62765
▁들어	-8.6288
예	-8.62888
▁치	-8.6298
지역	-8.63045
층	-8.63197
▁떨어진	-8.63438
▁것에	-8.63454
투	-8.63546
▁요구	-8.63674
▁학교	-8.63703
언	-8.63731
▁추	-8.63912
▁힐러리	-8.63921
렌	-8.64143
▁있도록	-8.64184
▁반군	-8.64265
O	-8.64399
▁오전	-8.64453
▁사태	-8.64597
▁거래	-8.64747
▁마지막	-8.64896
▁조직	-8.64919
▁본	-8.64993
먼	-8.6514
탄	-8.65179
h	-8.65229
팀	-8.65426
▁여행	-8.65542
▁비난했다	-8.6558
져	-8.6576
▁논의	-8.65806
블	-8.65873
▁정보	-8.65904
▁터키	-8.65921
▁제작	-8.6595
▁발언	-8.6616
▁금지	-8.66176
▁상황	-8.66355
▁북한이	-8.66458
▁가진	-8.66601
▁지구	-8.66621
▁은행	-8.67013
▁경찰이	-8.6713
측	-8.67343
머	-8.67477
▁진	-8.67892
집	-8.67908
▁최대	-8.68006
이라는	-8.68022
▁팀	-8.68033
▁취	-8.68301
▁요청	-8.68316
▁미국과	-8.68443
▁오는	-8.68463
각	-8.68747
▁F	-8.68775
업	-8.68785
거나	-8.68991
▁장관은	-8.6928
▁처음으로	-8.69284
▁각	-8.69358
▁자신이	-8.69479
▁a	-8.69502
▁영	-8.69507
▁진행	-8.69767
겨	-8.69852
on	-8.69855
▁이를	-8.69856
▁연기	-8.69893
▁그녀	-8.69909
▁그녀는	-8.69912
and	-8.70117
▁충돌	-8.70177
▁판결	-8.70187
▁출신	-8.70201
▁온	-8.70255
▁앞	-8.7029
ic	-8.70318
▁작업	-8.70389
으로부터	-8.70505
▁사회	-8.70636
L	-8.70672
▁규모	-8.70711
▁버락	-8.70712
▁생	-8.70796
▁친	-8.70866
졌다	-8.70904
하자	-8.70939
번째	-8.71007
▁지난달	-8.7115
▁26	-8.71152
됐으며	-8.71304
▁불법	-8.71316
▁용의자	-8.71517
▁없었다	-8.71587
열	-8.71649
▁행동	-8.7176
▁밤	-8.7177
▁이탈리아	-8.71773
▁최소	-8.71949
▁결	-8.71964
매	-8.72057
▁40	-8.72107
▁국민	-8.72292
▁폴	-8.72355
▁보내	-8.72421
▁난	-8.72578
▁자금	-8.72638
▁성공	-8.72834
▁자신	-8.72842
▁막	-8.72928
▁유지	-8.73029
▁앞으로	-8.73067
k	-8.73096
▁있지만	-8.7316
▁영향	-8.73235
▁야당	-8.73377
▁번	-8.73481
▁발사	-8.735
▁없이	-8.73586
▁지역에서	-8.73647
v	-8.73678
▁공항	-8.73808
▁CNN	-8.73813
R	-8.73854
박	-8.73878
위를	-8.73959
▁보인다	-8.73971
▁투자	-8.74127
▁들	-8.74142
▁서울	-8.74177
w	-8.74229
▁̋	-8.7439
상을	-8.74628
▁예	-8.74638
▁사망했다	-8.74675
▁주둔	-8.747
▁관한	-8.74758
▁N	-8.74938
▁투	-8.74995
▁공급	-8.74995
준	-8.75152
림	-8.75231
▁군사	-8.75326
런	-8.75334
함	-8.75506
5%	-8.75701
▁스페인	-8.75749
추	-8.75861
le	-8.75909
▁환경	-8.76101
락	-8.7614
▁된	-8.76216
▁의회	-8.7625
리는	-8.76332
령	-8.76449
▁좋은	-8.76567
▁29	-8.76587
▁사망자	-8.76728
▁G	-8.76796
해서	-8.76799
▁않다	-8.76848
▁공식	-8.7693
▁통	-8.77033
승	-8.77067
케	-8.77073
▁미사일	-8.77124
▁제공	-8.77156
초	-8.77282
▁지방	-8.77304
▁걸	-8.77474
▁가격	-8.77546
▁만에	-8.77662
_	-8.77674
▁회장	-8.77739
▁돈	-8.77848
▁현지	-8.77866
우리는	-8.77983
▁담	-8.78103
▁무샤라프	-8.78136
▁돌	-8.78209
포인트	-8.78239
▁미국이	-8.78436
자들은	-8.78467
▁H	-8.78519
▁출연	-8.78535
▁하루	-8.78608
▁수사	-8.78629
▁L	-8.78648
▁문	-8.78669
자가	-8.78766
후	-8.78983
한다고	-8.79108
▁런던	-8.79169
▁공동	-8.79177
외	-8.79185
▁비행기	-8.79251
등	-8.79321
▁관심	-8.7939
▁가능성	-8.79399
▁팔	-8.79444
▁인정	-8.79587
▁선수	-8.79774
it	-8.79797
▁동영상	-8.79924
▁28	-8.79937
▁코리아	-8.80234
▁관	-8.80269
▁사람들은	-8.80383
미국	-8.80523
▁백악관	-8.8066
▁변	-8.8069
article	-8.80783
▁행위	-8.80878
주의	-8.81106
▁범죄	-8.81134
입	-8.81286
▁알려졌다	-8.81362
▁인질	-8.81392
▁눈	-8.81427
음	-8.81524
▁이들은	-8.81568
회의	-8.81801
▁AP	-8.81864
▁무기	-8.81943
긴	-8.82028
독	-8.82075
▁D	-8.82148
▁평	-8.82197
▁우승	-8.82255
▁하락	-8.8235
▁벌이	-8.82545
▁2005.0	-8.82695
▁표	-8.82716
▁불구하고	-8.8314
본	-8.83233
▁중요한	-8.8328
▁패	-8.83434
▁정상	-8.83691
▁오바마는	-8.8375
▁바그다드	-8.84055
▁말했습니다	-8.84119
2005.0	-8.8414
▁정치적	-8.84186
▁나라	-8.84369
▁위험	-8.84378
▁빌	-8.84402
▁박사는	-8.84439
받	-8.84442
▁장관	-8.84462
▁속	-8.84485
있는	-8.84545
▁게임	-8.8461
▁체포	-8.8466
▁발생했다	-8.84682
▁남성	-8.84706
▁대통령과	-8.8485
▁독립	-8.84895
간의	-8.84958
▁사망한	-8.84965
▁고위	-8.84986
▁이전	-8.85087
▁자살	-8.85279
▁미국은	-8.85334
▁것입니다	-8.85392
un	-8.85531
▁헤	-8.85704
▁통과	-8.85963
▁시도	-8.85966
▁이런	-8.85984
▁여부	-8.86137
▁인용	-8.86138
▁밀	-8.86275
른	-8.86294
▁역할	-8.86295
▁의원	-8.86319
하겠다고	-8.86423
50	-8.86546
▁반면	-8.86602
▁드	-8.86641
렸다	-8.86659
▁운동	-8.86747
▁병력	-8.86749
▁정도	-8.86821
▁강화	-8.86884
▁잠	-8.86889
시켰다	-8.86982
▁폐쇄	-8.86996
▁2008	-8.87021
▁워싱턴	-8.87046
▁보안	-8.87054
at	-8.87067
표	-8.87483
▁곳	-8.87509
re	-8.87599
H	-8.876
▁직접	-8.87612
커	-8.87804
▁천	-8.87807
▁역사	-8.87873
▁이야기	-8.87932
▁부토	-8.88074
▁예상	-8.88089
▁부족	-8.88295
’’	-8.88312
하면	-8.88343
▁기업	-8.88516
▁회의	-8.88687
▁부인	-8.88754
▁애	-8.88814
▁사실	-8.88824
~	-8.89075
록	-8.89157
말	-8.89294
▁c	-8.89586
▁사망했다고	-8.89752
▁개인	-8.89778
플	-8.89849
자인	-8.89901
목	-8.89918
했을	-8.90093
▁딸	-8.90173
▁서비스	-8.90234
남	-8.904
혀	-8.90407
CNN	-8.9046
▁누	-8.90522
백	-8.90608
▁보다	-8.90785
▁&	-8.90898
▁기간	-8.9102
▁의하면	-8.91109
▁모습을	-8.91206
마리	-8.91258
▁알카에다	-8.9127
▁확보	-8.91365
▁골	-8.91573
▁재판	-8.91608
▁해안	-8.9187
만명	-8.9191
▁감소	-8.9192
으나	-8.92068
▁것이라는	-8.92082
시킬	-8.92094
랜드	-8.92149
▁사업	-8.92175
됐	-8.92227
▁자신들	-8.92232
ch	-8.9224
▁힘	-8.92447
▁아이들	-8.92485
억원	-8.92583
▁뉴스	-8.92646
▁청	-8.92784
▁통신	-8.92823
▁높은	-8.92973
▁더욱	-8.92979
▁가능성이	-8.93043
망	-8.93111
▁뜻	-8.93324
▁국경	-8.93461
▁지나	-8.935
쳐	-8.93561
▁전체	-8.93586
▁지난주	-8.93656
▁상원	-8.93695
▁참여	-8.93881
’(	-8.939
▁야	-8.93929
하던	-8.93937
▁건	-8.94288
곳	-8.94315
▁별	-8.94341
▁보고서	-8.94346
리아	-8.94456
▁하마스	-8.94608
▁성명에서	-8.94673
▁출전	-8.94678
골	-8.94772
▁길	-8.94886
▁아버지	-8.94964
▁왔다	-8.95085
▁참가	-8.95131
▁비행	-8.95175
▁언급	-8.95255
▁의견	-8.95303
▁K	-8.95503
▁아들	-8.95503
만달러	-8.95537
▁구조	-8.95734
▁호텔	-8.95786
차례	-8.9586
▁죽	-8.9591
▁신문	-8.95935
졌	-8.95935
▁위기	-8.95942
as	-8.95989
▁아침	-8.95996
▁지역에	-8.96
▁맥	-8.96039
장을	-8.96332
▁거리	-8.96397
이번	-8.96431
▁아니다	-8.96455
였던	-8.96485
▁승인	-8.96591
▁인쇄	-8.96603
▁것이며	-8.96637
정부	-8.96727
▁for	-8.96748
▁베이징	-8.96839
▁2004	-8.96966
하려	-8.97243
▁검사	-8.97334
▁총리가	-8.97357
▁전화	-8.97459
▁한나라당	-8.97514
합니다	-8.97565
▁말을	-8.97576
▁알고	-8.97676
▁마을	-8.97717
▁잡	-8.97728
▁않는	-8.97863
▁이와	-8.97876
▁마련	-8.97974
자들이	-8.98196
▁않았다고	-8.98259
▁석유	-8.98317
▁주택	-8.98342
▁제안	-8.98408
▁폭탄테러	-8.98634
▁캘리포니아	-8.98744
있다	-8.98766
세의	-8.98871
맨	-8.98983
▁키	-8.99076
태	-8.99191
현	-8.99209
▁요	-8.99249
▁건설	-8.99359
▁철수	-8.99389
나는	-8.99399
▁디	-8.99523
▁시신	-8.99545
▁기자회견에서	-8.99617
▁핵무기	-8.99676
▁번째	-8.99834
▁어제	-8.99853
성을	-8.99861
▁않	-8.9987
es	-9.00026
돌	-9.00083
▁국회	-9.0017
▁되는	-9.00188
▁시작했다	-9.0037
▁보였다	-9.00437
설명	-9.00587
▁필요한	-9.00956
▁라이스	-9.00967
▁사람이	-9.00989
자는	-9.01193
▁아니라	-9.01244
is	-9.0129
▁올라	-9.01358
▁결혼	-9.01382
▁테	-9.01412
▁너무	-9.01426
▁선택	-9.01789
폭	-9.01804
▁생활	-9.01819
▁증거	-9.01824
▁국방부	-9.01826
“	-9.01846
튼	-9.02122
▁해외	-9.02195
▁재개	-9.02441
▁박	-9.02601
왔다	-9.0278
▁전에	-9.02816
▁순	-9.02822
JO	-9.02856
레이	-9.02887
에서도	-9.02902
그러나	-9.0295
▁사르코지	-9.03012
▁쓰	-9.03087
▁농	-9.03107
년대	-9.03182
▁도착	-9.03254
단체	-9.03305
▁시설	-9.03392
▁우리는	-9.03553
▁협력	-9.03563
▁브라운	-9.03564
▁s	-9.03673
▁교육	-9.03811
▁타고	-9.03815
INS	-9.03928
▁남편	-9.03962
▁인권	-9.03975
글	-9.04052
▁넘	-9.04113
▁받을	-9.04246
▁크	-9.04353
▁원문	-9.04421
▁있고	-9.04465
▁티베트	-9.04538
▁이동	-9.0454
▁연합	-9.04561
불	-9.04656
사는	-9.04667
ation	-9.04668
▁작전	-9.04668
년까지	-9.04731
▁아프가니스탄	-9.04817
&	-9.0482
▁시위대	-9.04908
▁노무현	-9.05015
▁개최	-9.0502
▁결국	-9.05106
인한	-9.05148
▁콜롬비아	-9.05198
▁도로	-9.05276
평	-9.05464
였	-9.05614
스타	-9.05628
th	-9.05739
▁참	-9.05814
▁변호사	-9.05838
▁역시	-9.05862
▁삼	-9.05888
▁주변	-9.06198
▁직원	-9.06242
▁체	-9.06268
▁네	-9.06269
▁에너지	-9.06488
▁허	-9.06682
▁내년	-9.07087
▁목표	-9.07205
들에	-9.07248
▁친구	-9.07261
▁2003	-9.07275
년에	-9.07327
▁곧	-9.07335
▁이유로	-9.0735
▁열리는	-9.07414
탈	-9.07501
▁경쟁	-9.07559
▁참석	-9.07571
링	-9.07607
▁숨졌다	-9.07621
▁격	-9.07719
▁몰	-9.07806
액	-9.07972
▁수준	-9.08056
항	-9.08136
극	-9.08224
별	-9.08251
▁60	-9.08255
환	-9.08275
혈	-9.0836
▁인도네시아	-9.08361
▁국무부	-9.08397
▁사건에	-9.08529
축	-9.08539
갈	-9.08559
비아	-9.08677
▁타임즈	-9.08743
▁몸	-9.08743
▁산업	-9.08838
기로	-9.08932
씨	-9.08942
▁Korea	-9.08947
▁암	-9.08997
습	-9.09015
렸	-9.09174
엔	-9.09357
쿠	-9.09444
회사	-9.09537
▁연설	-9.09582
하라	-9.09742
기도	-9.09759
▁편	-9.09843
▁운영	-9.10014
▁탄	-9.10089
▁문제에	-9.10232
애	-9.10235
센터	-9.10265
▁전망	-9.10286
▁이제	-9.10333
▁왕	-9.10433
▁예정이라고	-9.10531
▁행	-9.10623
▁어떻게	-9.10655
▁판사	-9.10781
▁최초	-9.10815
독해	-9.10988
▁훈련	-9.11043
▁화요일	-9.11043
▁있	-9.1107
▁E	-9.11081
▁자유	-9.1145
ri	-9.11604
▁R	-9.11647
▁근	-9.11663
▁소유	-9.11709
▁시스템	-9.11727
▁회복	-9.1184
▁경선	-9.1187
▁같다	-9.12156
▁대회	-9.12271
▁레바논	-9.12389
▁경고	-9.12396
30	-9.12586
ro	-9.12654
▁알리	-9.12685
ur	-9.12823
율	-9.12871
▁한국인	-9.12916
▁동물	-9.12919
하려는	-9.12959
et	-9.12973
되기	-9.13023
▁전문가들은	-9.13095
침	-9.13283
▁성장	-9.1329
▁또는	-9.13332
▁원인	-9.13355
▁게	-9.13373
흐	-9.134
▁임무	-9.13436
▁커	-9.13514
▁국영	-9.13528
▁지명	-9.13534
일간	-9.13557
▁방안	-9.13646
▁빈	-9.13718
익	-9.13724
▁학생	-9.13735
▁인구	-9.13875
▁태국	-9.13876
▁정보를	-9.13966
▁일정	-9.14024
만원	-9.14092
▁이같	-9.14116
▁요구했다	-9.14155
▁태	-9.1416
장이	-9.14173
명과	-9.14202
▁U	-9.14207
▁31	-9.14268
▁만나	-9.14288
W	-9.14301
▁있게	-9.14316
슈	-9.1434
▁사임	-9.14354
▁음악	-9.14389
▁있기	-9.14465
▁멕시코	-9.146
▁데이비드	-9.14601
▁대선후보	-9.14607
잡	-9.14671
로서	-9.14765
▁200	-9.14959
▁2000	-9.15187
▁제재	-9.15207
▁대신	-9.15261
com	-9.15463
▁질	-9.15643
▁중심	-9.15722
사를	-9.15734
▁국민들	-9.15749
▁아프리카	-9.15887
▁주말	-9.1595
▁어린이	-9.16012
▁받아	-9.16089
▁과학자들	-9.16111
▁무장	-9.16193
▁비디오	-9.16224
▁앞두고	-9.16224
▁수술	-9.16428
씨는	-9.16457
▁정권	-9.16465
▁여객기	-9.16633
▁비롯	-9.16639
▁대변인	-9.1664
▁파괴	-9.16652
▁칼	-9.16721
누	-9.1674
▁사망하고	-9.16745
▁re	-9.16787
10	-9.16812
이자	-9.16822
▁양국	-9.16836
▁까지	-9.16842
우리	-9.16954
하거나	-9.16972
▁수행	-9.17069
▁추락	-9.17072
▁발견했다	-9.17095
▁배우	-9.17215
▁벌	-9.17215
▁바로	-9.17239
▁생각한다	-9.17258
▁샤	-9.17381
▁사과	-9.175
▁나타났다	-9.17533
▁구성	-9.17545
▁극	-9.17614
시키는	-9.17677
▁부분	-9.17824
▁스타	-9.17838
▁민간인	-9.17864
▁면	-9.17935
▁대사관	-9.17956
자들	-9.18056
▁용	-9.18174
▁되	-9.18314
▁관할	-9.18371
▁못	-9.18434
▁갈	-9.18506
빌	-9.18536
▁동부	-9.18555
▁아기	-9.18596
▁금	-9.18696
▁촬영	-9.18708
밀	-9.18711
▁일이	-9.18764
▁항공	-9.18799
▁제품	-9.1882
▁US	-9.18888
랑	-9.19019
▁전투	-9.1902
▁폭력	-9.1902
능	-9.19037
▁콜	-9.19075
▁b	-9.19102
▁있었던	-9.19173
▁전세계	-9.19176
▁독	-9.19417
▁자리	-9.19423
st	-9.19443
▁북	-9.1949
▁감시	-9.19502
틀	-9.19511
▁처	-9.19567
▁포함한	-9.19591
▁여자	-9.19629
▁정당	-9.19763
▁행정부	-9.19775
▁도움	-9.19833
억달러	-9.1992
▁쿠	-9.19948
안을	-9.19956
▁대규모	-9.19991
ra	-9.20046
▁고려	-9.20113
페	-9.20164
채	-9.20198
▁주도	-9.20224
퇴	-9.20296
▁소식	-9.2032
▁선고	-9.20489
냈다	-9.20619
▁만들어	-9.20685
업체	-9.20715
▁화재	-9.20749
▁아닌	-9.20859
▁국내	-9.20909
월에	-9.20991
패	-9.20994
▁주민	-9.21136
한다는	-9.21171
▁총격	-9.21186
▁여전	-9.21469
▁약속	-9.21472
▁가지	-9.21565
사건	-9.21673
▁기대	-9.2169
▁로버트	-9.21691
▁책임	-9.21967
▁살고	-9.22054
북	-9.22097
▁교수는	-9.22281
족	-9.22341
▁특별	-9.2238
▁복	-9.22498
▁찾아	-9.225
▁무장세력	-9.22558
▁0	-9.22563
리스	-9.22573
se	-9.2266
▁가지고	-9.22692
▁출	-9.22723
▁내려	-9.22761
▁의원은	-9.22794
▁촉구했다	-9.22931
▁밝혀졌다	-9.23003
퍼센트	-9.23019
▁국	-9.2313
▁보여주	-9.23197
센	-9.23225
톤	-9.23281
▁부대	-9.23283
▁세력	-9.23327
엘	-9.23397
▁온라인	-9.23431
▁작품	-9.23446
▁실시	-9.23455
▁계약	-9.23473
▁2002	-9.23495
▁항의	-9.235
규	-9.23758
올	-9.23778
)'	-9.23782
▁규정	-9.23873
시켜	-9.23915
▁총선	-9.24268
▁가자지구	-9.24315
us	-9.24326
▁수단	-9.24341
el	-9.24346
담	-9.24363
▁특히	-9.24391
▁선정	-9.2453
▁인간	-9.24688
▁거부	-9.24693
▁붕괴	-9.24757
총	-9.24812
▁연료	-9.24821
▁그들의	-9.24846
▁최	-9.24871
▁수감	-9.24903
▁안보	-9.24979
▁f	-9.24986
ter	-9.25047
▁입은	-9.25061
관계	-9.25068
해왔다	-9.2507
▁맡	-9.25088
▁입었다	-9.25138
창	-9.25187
▁월요일	-9.25204
▁악	-9.25246
▁수입	-9.2526
▁앤	-9.25296
▁LA	-9.25465
▁놓	-9.25503
레스	-9.25549
▁수치	-9.25641
▁캐	-9.25669
자회담	-9.25739
랜	-9.25819
되	-9.25826
▁경기에서	-9.25879
▁인수	-9.25937
▁말한다	-9.26069
▁부통령	-9.26103
▁나이	-9.26131
▁설치	-9.26183
▁이상이	-9.26206
▁받았	-9.26227
▁안에	-9.26366
▁책	-9.26379
20	-9.2653
힌	-9.26551
▁홍콩	-9.26556
▁차지	-9.26648
경기	-9.26741
술	-9.26744
▁작은	-9.26815
200	-9.26867
▁웹사이트	-9.27027
▁최종	-9.27039
▁시험	-9.2706
▁관계자가	-9.27069
▁퍼	-9.27088
빈	-9.27091
샤	-9.27093
▁가족들	-9.27123
▁부부	-9.27384
▁심각한	-9.27404
▁푸틴	-9.2747
허	-9.27516
▁노동	-9.27532
하겠다	-9.27542
스터	-9.27682
▁열차	-9.27728
▁외교	-9.27837
▁기소	-9.27923
셔	-9.27924
▁세금	-9.27969
▁증시	-9.28048
▁창	-9.28137
▁담당	-9.28141
▁필요하다	-9.28337
▁메시지	-9.28388
▁밝힌	-9.2839
▁대의원	-9.28425
▁경고했다	-9.28494
▁인기	-9.285
▁글	-9.28633
▁병	-9.28648
이어	-9.28688
▁없을	-9.28849
▁파업	-9.28928
ent	-9.28938
▁숨	-9.28942
▁환자	-9.29031
▁플로리다	-9.2907
▁개선	-9.29079
▁p	-9.29225
▁가치	-9.29233
▁반응	-9.2933
▁I	-9.29339
▁과거	-9.29352
책	-9.29598
▁아무	-9.29626
기구	-9.29683
하다고	-9.29758
▁기념	-9.29764
▁미국인	-9.29814
▁주식	-9.29849
▁학생들	-9.30087
줄	-9.30099
▁엘	-9.30138
▁회	-9.30163
▁캐나다	-9.30251
▁중인	-9.3033
례	-9.30484
▁슈	-9.30556
▁일을	-9.30572
▁발표한	-9.30583
션	-9.30617
▁광고	-9.30657
대로	-9.3067
▁마이클	-9.30724
▁움직임	-9.30728
▁암살	-9.3076
▁다양	-9.30838
▁문화	-9.30924
슬	-9.30929
▁임명	-9.31013
▁벌였다	-9.31056
향	-9.31098
▁외국인	-9.31103
▁비해	-9.31104
시장	-9.31118
릭	-9.3115
때	-9.31173
▁라디오	-9.31196
▁구속	-9.31296
시키	-9.314
변	-9.31526
▁얼마	-9.31579
▁섬	-9.31582
엄	-9.31668
▁폭	-9.31707
im	-9.31961
▁보수	-9.32286
여명	-9.32373
▁국가들	-9.32389
폐	-9.32466
▁대만	-9.32596
로운	-9.32698
▁돌아	-9.32745
▁프로	-9.32763
▁서부	-9.32967
염	-9.33027
▁통제	-9.33139
▁기록했다	-9.33183
▁강제	-9.33344
▁지역의	-9.33434
년부터	-9.33435
▁브라질	-9.33601
▁서로	-9.33638
▁식량	-9.33641
▁브	-9.33682
▁위반	-9.33687
▁중동	-9.3371
▁힐	-9.33736
▁씨	-9.33767
▁진압	-9.33871
쉬	-9.33903
▁이라크에서	-9.33985
▁헬기	-9.34044
▁스미스	-9.3409
▁어머니	-9.341
▁여름	-9.34114
▁관리들	-9.34157
▁했다고	-9.34169
▁가스	-9.34387
시키기	-9.34394
▁이유	-9.3454
500	-9.34549
펠	-9.3457
▁케냐	-9.34583
▁실험	-9.34606
▁지불	-9.34672
▁휴	-9.34713
▁취소	-9.3473
▁머리	-9.34761
▁파리	-9.34783
▁수출	-9.34891
겼다	-9.34926
▁외국	-9.34936
▁지지자들	-9.34953
▁그런	-9.34964
▁선언	-9.35016
▁w	-9.35066
▁울	-9.35089
▁명령	-9.35118
이었던	-9.35126
▁선출	-9.35142
▁국무장관	-9.35142
▁추진	-9.35206
▁짐바브웨	-9.35222
▁기관	-9.35231
▁법안	-9.35303
▁내렸다	-9.35351
드는	-9.35402
럼	-9.35511
앙	-9.35591
▁각각	-9.356
▁관광	-9.35661
▁같이	-9.35733
광	-9.35788
거리	-9.35801
▁비용	-9.35851
▁위치	-9.35969
움	-9.36007
국가	-9.36052
▁시아파	-9.36065
▁소송	-9.36095
로스	-9.36273
▁대변인이	-9.36401
▁밖에	-9.36444
▁뉴	-9.36472
▁감염	-9.36489
▁제한	-9.36498
▁제출	-9.36557
▁평균	-9.36574
수가	-9.36617
▁후보가	-9.36629
▁일반	-9.36653
▁역	-9.36701
▁못하	-9.36711
▁해군	-9.36724
▁장소	-9.36842
▁권리	-9.36911
▁시즌	-9.3716
=2	-9.37172
▁위성	-9.3719
은행	-9.37223
▁축구	-9.37235
▁미국에서	-9.37433
▁수십	-9.37441
▁배치	-9.37453
▁인상	-9.37504
▁하원	-9.37526
▁임	-9.37526
▁접근	-9.37576
▁경험	-9.37594
▁탈	-9.37601
▁목적	-9.37668
▁쇼	-9.37717
▁차례	-9.37765
▁제기	-9.37774
▁전달	-9.37839
협회	-9.38018
▁프리	-9.38031
▁여론조사	-9.38037
검	-9.38059
▁과정에서	-9.38166
▁나온	-9.38229
▁텍사스	-9.38368
▁전시	-9.38371
착	-9.38406
▁않아	-9.38437
동안	-9.38462
▁식	-9.38628
▁처리	-9.38875
▁차이	-9.39003
름	-9.39041
▁급	-9.39113
▁나는	-9.39217
▁파병	-9.39225
▁발견됐다	-9.39249
▁h	-9.39383
▁사건이	-9.39394
▁일본의	-9.39415
것	-9.39456
▁향	-9.39466
▁거주	-9.39533
일까지	-9.39546
▁신고	-9.39578
텔	-9.39592
▁사원	-9.39593
▁내무부	-9.39618
▁결의안	-9.39628
었	-9.39758
▁무역	-9.39779
벨	-9.39803
▁공연	-9.39805
▁사형	-9.39811
니다	-9.39874
학자	-9.39887
▁버스	-9.40049
▁걸쳐	-9.4016
▁당신	-9.40221
시키고	-9.40269
▁자료	-9.40274
▁귀	-9.40342
턴	-9.40471
▁2007	-9.4049
▁파견	-9.40695
개국	-9.40833
ir	-9.40837
▁경찰에	-9.40871
었습니다	-9.40965
▁제조	-9.40996
이란	-9.41014
▁광	-9.41089
x	-9.41164
▁항공사	-9.41177
▁의미	-9.41309
▁제시	-9.4144
했다는	-9.41587
▁전국	-9.41623
▁헌법	-9.41729
▁음식	-9.41734
▁다리	-9.41799
이드	-9.41805
가지	-9.41831
5000	-9.41933
▁상황이	-9.41976
▁설명	-9.41984
▁사이에	-9.41985
리고	-9.41991
▁사실이	-9.42035
▁80	-9.42055
▁수상	-9.42084
▁주재	-9.42102
하지만	-9.42121
대가	-9.42149
▁살인	-9.42162
▁개혁	-9.4225
▁설립	-9.42254
▁센터	-9.42276
▁500	-9.42299
▁허용	-9.42304
▁사랑	-9.42311
▁집중	-9.42314
▁대비	-9.42359
▁대상으로	-9.42448
▁부상했다	-9.4245
▁긴장	-9.4249
측은	-9.42513
지도	-9.42575
▁안정	-9.42689
▁이에앞서	-9.42767
▁논쟁	-9.42767
▁수요일	-9.42796
새	-9.4281
▁발전	-9.42829
▁위원회	-9.42909
▁평가	-9.4297
▁J	-9.43025
▁주지사	-9.43099
▁대피	-9.43192
중인	-9.43292
▁바이러스	-9.43305
▁터	-9.43332
▁사퇴	-9.43378
▁부모	-9.43404
▁/	-9.43483
▁것과	-9.4351
▁명이	-9.43541
트는	-9.43651
사가	-9.43721
▁넘어	-9.4375
▁관계자들은	-9.43818
▁성폭행	-9.43839
▁공습	-9.43904
▁그룹	-9.43971
▁따	-9.44032
▁교통	-9.44039
송	-9.44066
스가	-9.44098
▁포기	-9.44139
ion	-9.44193
▁희망	-9.44212
▁교수	-9.44216
▁아내	-9.44341
률	-9.44345
장에서	-9.44347
냐	-9.44367
▁교황	-9.44396
▁알려진	-9.44419
▁대해서는	-9.44422
하였다	-9.4444
▁목	-9.44444
il	-9.44495
▁The	-9.44506
▁결정했다	-9.44534
▁인물	-9.44579
▁받는	-9.44758
▁차베스	-9.44924
▁환영	-9.44939
▁혼란	-9.4495
▁후세인	-9.44961
▁압력	-9.44968
▁발견된	-9.45049
조사	-9.45053
▁집회	-9.45074
했	-9.45076
세기	-9.45147
킹	-9.45158
▁유일	-9.45255
▁한다는	-9.45324
십	-9.45396
▁de	-9.45407
▁단계	-9.45411
째	-9.45424
▁완전	-9.4547
▁관해	-9.45491
킨	-9.45606
쳤다	-9.45683
▁황	-9.45795
▁주민들	-9.45912
까	-9.45918
▁당선	-9.4592
낼	-9.4597
▁EU	-9.46019
▁바란다	-9.46022
2%	-9.46033
▁상대로	-9.4608
▁익명	-9.46143
알	-9.46188
▁요청했다	-9.46205
ID	-9.46211
명으로	-9.46286
▁교전	-9.46311
▁그들이	-9.46322
▁마약	-9.46343
▁교회	-9.46359
▁신원	-9.46561
ate	-9.46699
손	-9.46711
라며	-9.46782
▁변호사는	-9.46802
이라크	-9.46858
었다고	-9.47118
▁대응	-9.47152
▁야후	-9.47158
▁죽음	-9.47299
▁집단	-9.47317
▁예상된다	-9.47318
벌	-9.47371
▁기지	-9.47413
▁되어	-9.47425
▁이래	-9.4746
칠	-9.47525
문제	-9.47527
▁질문	-9.47549
있	-9.47568
▁기사	-9.4769
▁복귀	-9.47694
▁시리아	-9.47793
▁왕자	-9.48005
▁절	-9.48039
험	-9.48044
▁on	-9.48048
▁이명박	-9.48248
▁밝혔습니다	-9.48254
3%	-9.48287
▁구매	-9.48334
▁후보는	-9.48344
악	-9.48384
▁로마	-9.48422
하기도	-9.48438
▁아직까지	-9.4844
▁크게	-9.48454
기가	-9.48565
▁불만	-9.48585
ol	-9.48659
▁계	-9.48681
자와	-9.48687
lo	-9.48712
▁남북	-9.48717
▁미래	-9.48736
▁필	-9.48773
▁탑승	-9.48791
▁있지	-9.48798
▁북핵	-9.48816
▁끝	-9.48888
▁설	-9.48958
▁고용	-9.49
찰	-9.49024
▁업체	-9.49048
▁접	-9.49125
▁나가	-9.49182
▁받지	-9.49183
▁정신	-9.49202
수를	-9.49232
▁증	-9.49285
▁일어나	-9.49386
▁폭력사태	-9.49388
▁특	-9.49442
▁남한	-9.49533
▁이곳	-9.49542
되었습니다	-9.49582
볼	-9.49675
대의	-9.49697
방송	-9.49743
▁가정	-9.49774
▁인터뷰	-9.49792
▁중앙	-9.49872
▁저장	-9.49908
▁심장	-9.49918
U	-9.49936
햄	-9.49952
▁부정	-9.49974
▁뇌	-9.50118
▁사람은	-9.50129
▁임시	-9.50145
▁중국은	-9.50392
일부터	-9.50393
▁이집트	-9.50528
▁효과	-9.5054
▁표현	-9.50552
▁따라	-9.50557
▁연결	-9.50596
되었다고	-9.50612
▁시민	-9.50632
▁허가	-9.50639
▁베네수엘라	-9.50685
녀	-9.50739
▁아니라고	-9.51011
롭	-9.5107
▁민주주의	-9.51118
▁따른	-9.5112
▁비밀	-9.51204
▁측	-9.51318
견	-9.51329
▁내리	-9.51389
델	-9.51441
기관	-9.51461
충	-9.51492
▁관계자	-9.51516
▁위해서는	-9.51542
▁홀	-9.51586
▁마크	-9.51634
효	-9.51667
▁목요일	-9.51687
▁교도소	-9.51687
왔	-9.51716
▁여론	-9.51766
▁때까지	-9.51851
존	-9.51891
▁정부와	-9.51912
-1	-9.51918
으로서	-9.51984
서는	-9.52032
▁판	-9.52089
칭	-9.52244
▁사이트	-9.52247
얼	-9.52247
성이	-9.52265
▁검토	-9.52273
▁시카고	-9.52275
▁최악	-9.52281
▁모델	-9.52311
▁m	-9.52313
▁권력	-9.52335
▁쿠바	-9.52357
▁적이	-9.52358
▁여사	-9.52359
▁받게	-9.5236
▁실패	-9.52417
▁팬들	-9.52426
리자	-9.5251
sp	-9.52541
이지만	-9.52742
욕	-9.52805
시아	-9.52831
▁여기	-9.52869
▁합니다	-9.5288
▁과정	-9.52906
▁2001	-9.53006
자로	-9.53062
▁임기	-9.53092
었던	-9.53102
▁만들	-9.53151
▁비판	-9.53174
으	-9.53295
폰	-9.5342
▁장면	-9.53429
▁높이	-9.53451
▁프라이머리	-9.53451
▁무장단체	-9.53469
▁g	-9.53499
▁슬	-9.536
▁분야	-9.53636
▁가졌다	-9.53746
▁깊	-9.53752
몬	-9.53808
▁내부	-9.53826
▁매년	-9.5388
낸	-9.53912
숙	-9.53959
ist	-9.5398
▁상원의원이	-9.54058
▁유명	-9.54085
▁이해	-9.54092
만이	-9.54097
▁진출	-9.54103
▁웨	-9.54167
▁사는	-9.54225
▁해리	-9.5424
▁사라	-9.54271
▁병사	-9.54298
순	-9.54323
▁못하고	-9.5434
▁입원	-9.54362
▁수색	-9.54373
▁완	-9.54423
▁동료	-9.54437
되면서	-9.54483
4%	-9.54571
▁계획이다	-9.54573
▁철	-9.54585
▁일요일	-9.54647
▁분쟁	-9.54666
▁사무실	-9.5467
그는	-9.54678
▁두고	-9.54685
북한	-9.5473
▁예측	-9.54786
▁뿐	-9.54883
▁자체	-9.54898
▁넣	-9.54898
▁공격으로	-9.54911
▁언급했다	-9.54918
▁시행	-9.54919
▁보냈다	-9.54965
▁민	-9.54996
▁be	-9.55118
헌	-9.55134
▁강력한	-9.55159
▁보건	-9.55176
▁필리핀	-9.55248
▁이끄는	-9.55251
치는	-9.55265
▁아랍	-9.55273
▁국립	-9.55278
▁유권자들	-9.55286
인들은	-9.55302
▁선박	-9.55312
▁수많은	-9.55357
▁분석	-9.5537
▁소방	-9.55435
▁못한	-9.55438
▁도움이	-9.55505
▁나왔다	-9.55543
ers	-9.55593
인들이	-9.55637
▁들어가	-9.55654
▁밝혀	-9.5568
▁학	-9.55688
ow	-9.55747
찬	-9.55808
▁라이	-9.55816
▁버지니아	-9.55854
거래	-9.5586
쟁	-9.55903
인지	-9.56079
▁지도자들	-9.56098
▁밝히지	-9.56149
▁장기	-9.56198
▁달리	-9.56201
ut	-9.56286
op	-9.56379
▁사항	-9.56385
‘	-9.56401
▁보고서는	-9.56419
느	-9.56424
좌	-9.5645
▁오른	-9.56553
▁벤	-9.56591
▁의료	-9.5661
겠다	-9.5665
▁향해	-9.56701
▁바다	-9.5683
▁강한	-9.57049
▁형	-9.57072
▁한반도	-9.57079
▁보여	-9.5713
▁폐	-9.57145
▁되고	-9.57178
▁선두	-9.5718
▁주가	-9.57234
기간	-9.57269
▁떠나	-9.57289
▁이루	-9.57332
▁항공기	-9.57347
▁의장	-9.57396
la	-9.57403
법원	-9.57468
▁관계자들	-9.57493
다른	-9.57554
▁수익	-9.57584
봉	-9.57594
▁전력	-9.57596
객	-9.57626
논	-9.5763
▁확인했다	-9.57701
지에	-9.57824
▁과학	-9.579
▁상대	-9.57936
▁관광객	-9.58005
▁군대	-9.58022
▁심리	-9.58115
철	-9.58277
ment	-9.58302
▁비슷	-9.58315
딘	-9.58315
▁빠져	-9.58317
▁흑인	-9.58329
▁긴급	-9.58333
▁힘들	-9.5841
▁누구	-9.58418
▁약물	-9.58466
▁가져	-9.58468
▁정부에	-9.58523
▁거대	-9.58554
▁작년	-9.58629
▁UN	-9.58656
람	-9.58663
스크	-9.58843
▁제거	-9.58934
▁나머지	-9.58941
▁레이	-9.59007
▁칸	-9.59009
▁종교	-9.59127
▁전략	-9.59135
▁저지	-9.59141
▁주지사는	-9.59192
였으며	-9.59229
▁지진	-9.59404
위에	-9.59456
▁전자	-9.5956
▁올랐다	-9.59569
혹	-9.59576
▁사우디	-9.59591
▁맺	-9.596
▁범인	-9.59679
이라	-9.5968
▁고통	-9.59998
▁소년	-9.60038
▁막기	-9.60055
▁부상자	-9.60091
▁유권자	-9.60169
▁목숨	-9.60203
▁숨지고	-9.60207
▁선수들	-9.60215
경찰	-9.60264
▁육	-9.60281
▁소재	-9.60359
▁소리	-9.60453
▁진행되	-9.60575
▁소비자	-9.60657
여명이	-9.60694
▁희생자	-9.60753
음을	-9.60827
▁도쿄	-9.60839
▁다음달	-9.60902
▁오르	-9.6093
▁만든	-9.60937
다면	-9.61046
▁갖	-9.61225
▁1000	-9.61242
▁대사	-9.61254
▁O	-9.61358
▁대중	-9.61387
관리	-9.6139
싱	-9.6148
▁정상회담	-9.61489
▁분리	-9.6153
#	-9.61586
▁국방장관	-9.61586
▁시기	-9.61656
▁감사	-9.61974
ce	-9.61976
ive	-9.62003
id	-9.62024
▁혼	-9.6205
랄	-9.6212
▁제임스	-9.62126
▁어느	-9.62158
▁근무	-9.62193
섬	-9.62248
▁제외	-9.62285
▁악화	-9.62358
▁북한에	-9.62363
ck	-9.62432
▁받았다고	-9.62451
▁없었	-9.62488
▁주장하고	-9.62586
▁가능한	-9.62627
▁백	-9.62633
행위	-9.6271
▁있다며	-9.62724
르는	-9.62729
▁사람들에게	-9.62732
ot	-9.62884
▁법정	-9.62997
▁올리	-9.63075
▁준	-9.63253
주의자	-9.63343
베이	-9.63398
▁싶다	-9.63428
▁외무부	-9.63428
▁경찰관	-9.63436
▁인질들	-9.63439
▁충격	-9.63443
▁출발	-9.6347
▁총기	-9.63471
▁만큼	-9.63479
리가	-9.63498
▁착륙	-9.63524
▁질문에	-9.63673
▁이라크전	-9.63685
▁넘는	-9.63771
▁집행	-9.63784
▁항	-9.63786
▁노조	-9.63819
분기	-9.6382
▁아니	-9.63995
자금	-9.64008
취	-9.64013
▁현대	-9.64025
Ch	-9.6408
▁적어도	-9.64088
▁뛰어	-9.64135
▁정도로	-9.64154
▁군부	-9.64223
한다면	-9.64334
만한	-9.64343
▁되었다	-9.64375
▁풍	-9.6451
▁권	-9.64517
▁끝에	-9.6452
▁것이라	-9.64534
널	-9.64567
▁동의	-9.64588
▁작가	-9.6459
금을	-9.6465
▁붙	-9.64657
▁곳에서	-9.64769
안에	-9.64802
▁보낸	-9.64803
▁인사	-9.64811
마다	-9.64885
우스	-9.64902
척	-9.64943
▁여당	-9.65002
▁불안	-9.65023
▁가까	-9.65112
되며	-9.65122
▁어떠한	-9.65415
▁허리케인	-9.65415
▁패배	-9.65474
▁의혹	-9.6548
사회	-9.65488
들도	-9.65493
▁수천	-9.65499
▁하기	-9.65664
▁공장	-9.6576
▁후에	-9.65872
40	-9.65937
선거	-9.66004
장관	-9.66016
▁접촉	-9.6609
▁직원들	-9.66125
▁중에	-9.66178
▁떠	-9.66179
▁동결	-9.66202
▁수천명	-9.6632
▁공공	-9.66327
▁자국	-9.66393
였습니다	-9.66422
▁직	-9.6643
▁발생했다고	-9.66458
70	-9.66527
Y	-9.66629
▁전기	-9.66689
스와	-9.66696
▁무엇	-9.66737
▁35	-9.66748
황	-9.66761
씩	-9.66762
▁되지	-9.66803
▁보장	-9.66808
▁전문가	-9.66818
▁일자리	-9.6682
ap	-9.66826
어질	-9.66875
▁출마	-9.66875
둔	-9.6698
▁여성들	-9.67048
▁양측	-9.67168
▁다이애나	-9.67171
7%	-9.67219
▁st	-9.67298
▁끌어	-9.67442
▁없어	-9.67442
▁확대	-9.67442
▁모른다	-9.67443
▁폭풍	-9.6745
▁압박	-9.67456
▁유명한	-9.67471
▁승객	-9.67542
▁삶	-9.67542
▁여성이	-9.67663
▁나와	-9.67667
귀	-9.67736
▁이달	-9.67761
▁푸	-9.67861
▁발생해	-9.67887
▁300	-9.68006
all	-9.68078
컵	-9.68124
▁증언	-9.68151
ve	-9.68169
▁입고	-9.68193
ig	-9.68312
▁고문	-9.68346
▁합의했다	-9.68358
스톤	-9.6836
▁쉬	-9.68388
대통령	-9.68414
통신	-9.68473
▁합	-9.68485
겠다고	-9.68514
▁유로	-9.68535
▁지속	-9.68539
▁방문한	-9.68638
스키	-9.68674
니스	-9.68674
▁환	-9.68729
빙	-9.68757
▁사상	-9.68775
▁어려움	-9.68821
▁유죄	-9.68853
ly	-9.68904
▁완화	-9.68932
▁찰스	-9.68997
▁주의	-9.69025
▁구호	-9.69046
▁등의	-9.69062
▁자연	-9.6908
▁피해자	-9.69114
J	-9.69152
▁동원	-9.69165
▁오바마가	-9.69353
▁마리	-9.6946
▁외무장관	-9.69512
▁확신	-9.69578
▁수백	-9.69584
▁아주	-9.69585
▁미군이	-9.6959
▁작성	-9.69635
였다고	-9.69684
이것은	-9.69703
압	-9.69734
▁묻	-9.69748
▁지배	-9.69795
▁십	-9.69889
▁대표는	-9.6995
▁군인	-9.70102
▁듯	-9.70107
▁로켓	-9.702
▁소말리아	-9.7021
▁목소리	-9.70211
▁소녀	-9.70252
었으며	-9.70272
▁경매	-9.70279
▁홍보	-9.70319
기에	-9.70345
▁것인지	-9.70406
스러운	-9.70421
▁지도자인	-9.70432
▁대해서	-9.70462
▁병원에	-9.70486
2006.0	-9.70614
해졌다	-9.70617
▁끝나	-9.7065
테러	-9.70657
▁마음	-9.7068
마일	-9.7076
백만	-9.70768
▁바라	-9.70883
▁주민들이	-9.70891
▁않았지만	-9.70915
▁시상식	-9.70915
▁능력	-9.7092
▁대화	-9.70934
▁화	-9.7097
▁전반	-9.70992
▁바람	-9.71002
▁체포됐다	-9.71026
▁존스	-9.71046
근	-9.71102
▁가질	-9.71139
센트	-9.71152
▁그리스	-9.71153
▁현장	-9.71475
80	-9.7149
▁시간이	-9.71509
11	-9.71579
▁연장	-9.71581
j	-9.71624
▁신뢰	-9.71638
월부터	-9.71661
▁평양	-9.71676
▁의원들	-9.71702
▁나오	-9.71702
▁숨진	-9.71725
▁등록	-9.7177
▁총재	-9.71778
▁심각	-9.71783
운동	-9.71799
▁모르	-9.71802
▁적용	-9.71823
▁망명	-9.7187
▁해제	-9.71876
원은	-9.71907
▁공군	-9.71995
▁왔	-9.7205
▁언론은	-9.72099
▁승	-9.72162
▁티	-9.72167
주는	-9.72219
징	-9.72279
켓	-9.72319
균	-9.72321
▁게이츠	-9.7234
▁취임	-9.72365
▁연구소	-9.72367
▁머물	-9.72376
▁절차	-9.72405
▁카운티	-9.72465
타임	-9.72617
부는	-9.72625
막	-9.7273
6%	-9.72795
▁카메라	-9.72837
힐	-9.72838
▁대법원	-9.72857
▁사건은	-9.72935
표를	-9.72943
옥	-9.72999
▁걱정	-9.73058
▁말레이시아	-9.73058
▁프로젝트	-9.73058
싼	-9.73058
▁휴대폰	-9.7306
▁트럭	-9.73063
▁법적	-9.73075
▁잔	-9.73195
▁상당	-9.73199
▁존재	-9.73216
▁목표로	-9.73262
▁아베	-9.73305
▁서명	-9.73306
▁그것은	-9.73313
드로	-9.73316
▁반대하는	-9.73339
▁강력	-9.73364
▁유세	-9.7339
▁기억	-9.73395
했는데	-9.73454
▁관련해	-9.73456
60	-9.73472
▁전문	-9.73514
▁소비	-9.73538
쇼	-9.73566
▁최고의	-9.7361
럽	-9.73674
▁보이는	-9.73746
닝	-9.73782
▁느끼	-9.73782
▁청와대	-9.73784
▁아무런	-9.73807
▁여왕	-9.73808
▁물론	-9.73915
▁오래	-9.74008
▁신용	-9.74106
▁당선인	-9.74143
▁크리스	-9.74204
영화	-9.74399
▁젊은	-9.7442
틴	-9.74429
갑	-9.74471
;	-9.74512
▁힐튼	-9.74531
▁순간	-9.74622
▁항상	-9.74623
었고	-9.74646
스턴	-9.74675
제도	-9.74801
▁영어	-9.7487
ia	-9.74952
조치	-9.74979
중국	-9.75009
도시	-9.75018
The	-9.75075
▁운전	-9.75091
▁술	-9.75105
▁바이	-9.75105
▁등을	-9.7524
▁신화통신	-9.75247
웰	-9.75247
▁마드리드	-9.75248
▁추정	-9.75252
▁옷	-9.75498
▁즐	-9.75534
▁이라크에	-9.75554
으려	-9.75563
▁사기	-9.75696
활동	-9.75856
연합	-9.759
셀	-9.75916
▁들고	-9.75951
정책	-9.75955
▁수석	-9.75972
텐	-9.75982
젤	-9.75988
▁밝혀지지	-9.7599
▁운행	-9.76003
▁오픈	-9.76026
▁투입	-9.7603
▁경제적	-9.76091
▁놓고	-9.76107
▁신청	-9.76152
세트	-9.76156
▁지역을	-9.76185
▁자주	-9.76244
▁지하	-9.76249
▁그린	-9.76269
▁수용	-9.76331
▁박물관	-9.76434
물을	-9.76586
념	-9.76654
X	-9.76734
젠	-9.76734
▁법률	-9.76762
▁국제사회	-9.76771
▁상징	-9.7678
▁해야	-9.76845
▁고래	-9.76862
▁법안을	-9.76895
관은	-9.76909
▁도중	-9.76986
▁90	-9.77164
▁만약	-9.7733
시설	-9.77332
궁	-9.77336
▁프	-9.77355
완	-9.77381
뉴	-9.77431
럴	-9.77453
공격	-9.77477
▁챔피언	-9.77486
▁나타나	-9.77488
▁수니파	-9.77489
▁이수지	-9.77514
장에	-9.7754
▁판단	-9.77582
▁집권	-9.77595
▁도전	-9.77646
대표	-9.77655
▁선거에서	-9.77663
▁좀	-9.7767
웨	-9.7767
▁시작된	-9.77748
▁비상	-9.77813
스코	-9.77909
▁굴	-9.77963
▁본부	-9.78027
▁있음을	-9.78087
당한	-9.78105
왕	-9.78126
▁작	-9.78154
▁확산	-9.78168
접	-9.78192
뤄	-9.78239
팅	-9.78244
▁얼굴	-9.78244
▁베컴	-9.78257
▁토론	-9.78268
▁미군은	-9.78286
▁촉구	-9.78321
▁이전에	-9.78322
▁연속	-9.78345
▁헌	-9.78349
▁집계	-9.784
▁피터	-9.7844
국장은	-9.78504
▁벌금	-9.78571
)/	-9.78611
위로	-9.78628
▁윌리엄	-9.78644
▁비자	-9.78662
▁2006.0	-9.7867
▁조건	-9.78746
▁회담에서	-9.78862
대한	-9.78868
▁동시	-9.7893
▁늘어	-9.78939
▁수반	-9.78947
▁타이	-9.78951
으면	-9.78974
▁올메르트	-9.79007
▁잉글랜드	-9.79007
닐	-9.79007
▁아파트	-9.79008
▁억류	-9.79012
▁애플	-9.79042
로써	-9.7908
▁전까지	-9.79088
▁부패	-9.79111
▁구입	-9.79115
▁정말	-9.79141
▁진정	-9.79258
▁가수	-9.79272
해진	-9.79377
었지만	-9.79457
학교	-9.79534
만명이	-9.79678
▁기회	-9.79725
▁연설에서	-9.79736
▁스포츠	-9.79776
est	-9.79813
▁물질	-9.79862
▁자녀	-9.79886
▁찬성	-9.79905
▁영상	-9.79906
전에	-9.79913
▁분노	-9.79933
▁전통	-9.80002
장관은	-9.8002
회사인	-9.80048
▁소식통	-9.80061
산업	-9.80072
쪽	-9.80077
▁차기	-9.80136
▁연합군	-9.80215
▁부문	-9.80256
▁사상자	-9.80274
달러를	-9.80302
자들의	-9.80332
제를	-9.80461
▁겪고	-9.80552
▁크리스마스	-9.80552
▁직후	-9.80574
▁확실	-9.80621
▁마무리	-9.8065
▁개의	-9.80671
들로	-9.80683
▁민주	-9.8075
▁깨	-9.80766
▁대형	-9.80856
▁정부군	-9.80983
▁체포했다	-9.81018
9%	-9.81023
▁한미	-9.81125
▁낮	-9.81167
▁땅	-9.81199
▁곳에	-9.81284
V	-9.81285
▁강조	-9.81318
▁블레어	-9.81333
▁블랙	-9.81333
▁주민들은	-9.81423
▁핵심	-9.81533
보호	-9.81543
▁대처	-9.81548
시킨	-9.81563
700	-9.81619
▁외교부	-9.81633
▁모여	-9.81696
▁축하	-9.81715
트리	-9.81742
▁수정	-9.81766
cat	-9.81837
▁마감	-9.81879
킬	-9.81901
▁한국은	-9.81942
▁있는지	-9.8197
드리	-9.81994
▁시대	-9.82077
▁선포	-9.82082
▁고양이	-9.82122
윈	-9.82156
▁늘	-9.82174
▁임신	-9.82196
▁휴전	-9.82287
▁당했다	-9.82296
▁경계	-9.82323
ver	-9.82435
▁영국의	-9.82442
▁동맹	-9.82445
▁사살	-9.82457
▁밝히	-9.82459
▁가능	-9.82533
19	-9.82627
te	-9.82733
▁구제	-9.82767
▁찬	-9.82842
놓	-9.82881
▁협의	-9.82914
▁비상사태	-9.82919
라운드	-9.82919
▁언제	-9.8292
▁몇몇	-9.82921
▁놀	-9.82923
▁스스로	-9.82924
▁원자로	-9.8297
▁산불	-9.82972
▁그러	-9.83103
▁나토	-9.8315
▁씨는	-9.83168
트로	-9.83331
▁때문	-9.83338
▁머	-9.83364
했는지	-9.83394
▁병원에서	-9.83456
▁약간	-9.83538
어진	-9.83566
▁요원	-9.83599
▁맞아	-9.8361
치를	-9.83638
mo	-9.83648
군이	-9.8365
ies	-9.83654
▁이밖에	-9.83714
▁빠른	-9.83714
▁클럽	-9.83715
▁탁신	-9.83715
▁빠르	-9.83716
▁보이고	-9.83716
▁BBC	-9.83728
▁처벌	-9.83729
▁감축	-9.8376
몰	-9.83768
▁최신	-9.83793
▁소지	-9.83797
▁난민	-9.83803
니아	-9.83827
▁성인	-9.83837
▁노출	-9.83848
▁소장	-9.83857
▁팬	-9.83988
▁무사	-9.84016
▁녹	-9.8402
상의	-9.84194
▁문서	-9.84238
▁유사	-9.84288
▁풀	-9.84294
사의	-9.84378
▁헬	-9.84454
▁실시된	-9.8446
▁보안관	-9.84499
▁높다	-9.8452
▁떨어져	-9.8452
▁협정	-9.8452
▁할리우드	-9.84521
▁일어난	-9.84521
▁업무	-9.84524
▁엔	-9.84533
▁고속도로	-9.84534
함으로써	-9.84547
▁절반	-9.84559
ay	-9.8461
암	-9.8462
▁보이지	-9.84653
특	-9.84672
▁단지	-9.84683
끼	-9.84696
▁조금	-9.84723
▁현상	-9.84874
▁이란이	-9.84897
ne	-9.84905
▁차지했다	-9.84996
▁케	-9.85025
이었다고	-9.85041
▁받	-9.85044
▁대책	-9.85057
▁이틀	-9.85061
▁트레	-9.85122
▁돌아가	-9.85142
니는	-9.852
필	-9.85215
롤	-9.85323
▁스피어스	-9.85333
겐	-9.85333
▁코소보	-9.85334
joins	-9.85336
▁나타냈다	-9.85402
▁오랜	-9.85432
▁조작	-9.85529
▁내각	-9.85588
▁중이다	-9.85629
▁알려지	-9.85661
원이	-9.85661
▁강타	-9.8568
▁발생할	-9.85696
▁나무	-9.85703
▁가량	-9.85713
선수	-9.85741
▁실수	-9.85749
▁의원이	-9.8576
▁치안	-9.85793
월까지	-9.8583
택	-9.85877
▁아마	-9.85905
스카	-9.85969
▁받기	-9.86011
국인	-9.86027
▁컨	-9.86054
▁지켜	-9.8606
▁북한과	-9.86079
▁이와같	-9.86116
▁대화를	-9.86141
렉	-9.86153
▁찾기	-9.86153
▁크리스토퍼	-9.86153
▁샤리프	-9.86153
▁민병대	-9.86154
co	-9.86159
ight	-9.86161
▁이미지	-9.86225
▁결론	-9.86231
▁벨	-9.86281
▁압	-9.86323
▁개정	-9.86378
▁부인했다	-9.86383
▁사망했으며	-9.86396
▁낮은	-9.86431
화를	-9.86471
▁이송	-9.86476
▁윌리엄스	-9.86545
▁70	-9.86554
▁장군	-9.86588
지르	-9.86652
▁그에게	-9.86662
▁실제	-9.86705
▁놀라	-9.86749
▁그들	-9.86804
▁보좌관	-9.86813
▁않겠다	-9.86872
▁초기	-9.86948
▁아카데미	-9.8698
▁오랫동안	-9.8698
꺼	-9.8698
cnn	-9.86982
ht	-9.87011
▁개봉	-9.8702
헤	-9.87021
▁태양	-9.87024
▁공원	-9.87037
75	-9.87043
▁Korean	-9.87049
▁확실히	-9.87083
▁매일	-9.87113
지역에서	-9.87137
▁노래	-9.87138
뉴스	-9.87179
2007.0	-9.87185
▁납	-9.87343
▁원조	-9.87381
con	-9.87426
▁알게	-9.87633
▁죄	-9.87645
▁소식을	-9.87683
▁의심	-9.87741
▁그렇게	-9.87813
▁지지율	-9.87877
▁대표팀	-9.87877
▁개입	-9.879
▁위기에	-9.8791
▁추방	-9.87961
력이	-9.87963
▁고든	-9.87974
▁충	-9.87986
▁상황에서	-9.88126
▁트	-9.88172
즈는	-9.8819
▁후반	-9.88194
▁45	-9.88225
▁이용해	-9.88312
▁케이	-9.88378
▁말하고	-9.88386
▁수백명	-9.8841
해주	-9.88488
▁약속했다	-9.88492
▁해당	-9.88543
상태	-9.88612
딩	-9.88638
▁지도	-9.88645
덕	-9.88651
▁나섰다	-9.88653
▁네덜란드	-9.88653
tp	-9.88654
▁집에서	-9.88695
▁다쳤다	-9.88732
▁기자회견	-9.88796
▁화성	-9.8882
▁민간	-9.8883
▁보유	-9.88844
한국	-9.8888
▁기반	-9.88902
▁소식통은	-9.8891
▁블로그에	-9.88923
▁목사	-9.8897
▁원유	-9.88975
▁둔	-9.89001
▁손상	-9.89027
▁이혼	-9.89077
▁지키	-9.89083
▁마르	-9.89111
▁증가했다	-9.89143
▁수백만	-9.89221
▁단어	-9.89248
▁월드컵	-9.89327
물이	-9.89342
▁대통령에게	-9.89352
▁경찰과	-9.89421
▁부르	-9.89449
▁쿠르드	-9.89491
▁확정	-9.89501
▁무가베	-9.89503
://	-9.89503
▁먼저	-9.89503
▁하워드	-9.89522
▁보험	-9.89575
▁담배	-9.89579
▁성적	-9.89587
▁예산	-9.89626
풍	-9.89637
▁탐사	-9.8965
▁즉	-9.89662
▁시점	-9.89963
▁희생	-9.89981
▁실종	-9.90015
▁후보에	-9.90081
▁150	-9.90117
▁기회를	-9.90133
▁모습	-9.90156
TA	-9.90289
▁참석한	-9.90291
▁방해	-9.90308
▁찾는	-9.90355
▁캠프	-9.90355
▁세르비아	-9.90355
Total	-9.90356
code	-9.90361
겠지만	-9.9037
25	-9.90392
▁배럴	-9.90393
▁있었으며	-9.904
up	-9.90402
▁속에	-9.90408
▁철회	-9.90417
▁사례	-9.90466
▁알아	-9.90481
▁베이	-9.90487
▁후보로	-9.90616
▁함	-9.90648
TV	-9.90705
▁크기	-9.9079
▁대북	-9.90807
▁연구진	-9.90817
▁대체	-9.90833
▁휴가	-9.90835
▁날씨	-9.90885
▁증명	-9.90917
▁32	-9.90931
사태	-9.90955
▁박사	-9.90966
▁금리	-9.90981
▁못할	-9.9101
▁조정	-9.91016
▁요구한	-9.91019
주년	-9.91073
▁쥐	-9.91093
▁구성된	-9.91103
탕	-9.91105
▁곤	-9.91139
▁우크라이나	-9.91218
▁펜실베이니아	-9.91218
▁태풍	-9.91229
▁알려져	-9.91234
▁대기	-9.91274
▁통합	-9.91277
▁위험한	-9.91282
하려고	-9.91288
됐지만	-9.91309
▁사용하는	-9.9132
▁외교관	-9.91355
▁교체	-9.91375
▁연루	-9.91383
▁위원장은	-9.91386
▁그것	-9.914
▁보상	-9.91479
줬다	-9.91483
▁지급	-9.91539
버그	-9.91541
위원회는	-9.91578
항공	-9.91584
▁명단	-9.91607
웨이	-9.91661
▁의한	-9.91747
자들에게	-9.91777
▁데이	-9.91822
▁있는데	-9.9185
▁남성이	-9.91865
▁대표단	-9.91917
촌	-9.92082
▁모하메드	-9.92087
▁스티븐	-9.92087
▁침체	-9.9209
▁피랍	-9.92105
파운드	-9.92112
▁1999	-9.92118
▁진입	-9.92145
▁2009	-9.92164
▁기후	-9.9224
▁휘	-9.92249
▁손실	-9.92261
▁벌인	-9.92371
▁이행	-9.92393
▁재산	-9.92426
▁다수	-9.92445
▁중국이	-9.92468
명에	-9.9251
▁홍수	-9.92619
▁폐기	-9.92632
▁니콜라	-9.92636
달하는	-9.92827
▁#	-9.9283
▁시작됐다	-9.92855
▁400	-9.92897
▁실시한	-9.92902
▁웹사이트에	-9.92931
▁빨리	-9.92964
▁정확한	-9.92964
몽	-9.92964
▁조종사	-9.92965
▁마이크	-9.92975
▁분위기	-9.92982
▁질병	-9.93022
필드	-9.93039
▁경찰서	-9.93046
▁해변	-9.93058
▁그래	-9.93058
▁견	-9.9307
▁진술	-9.93076
▁궁	-9.9314
▁삼성	-9.93186
라스	-9.93209
▁분명	-9.93213
브라	-9.93235
▁영향력	-9.93274
▁어린	-9.93293
▁전역	-9.93303
▁진전	-9.9331
▁재정	-9.9335
▁표시	-9.93397
▁NASA	-9.93464
데이	-9.93598
▁군인들	-9.93748
닉	-9.93848
▁얻었다	-9.93849
쯤	-9.93849
▁스티브	-9.93851
▁부동산	-9.93851
▁엄마	-9.93853
▁흔들	-9.93857
▁규제	-9.93859
▁국왕	-9.93863
▁인정했다	-9.93881
▁기자는	-9.93918
짜리	-9.93984
▁특사	-9.93985
으로써	-9.94184
▁현장에	-9.9427
▁그중	-9.94334
사인	-9.94447
▁들었다	-9.94477
▁당선자	-9.94585
▁사무총장은	-9.94684
▁저녁	-9.94742
▁장난감	-9.94742
▁자살폭탄테러	-9.94746
▁콘돌	-9.94754
ak	-9.94758
▁대답	-9.94785
어야	-9.94796
▁응	-9.94827
▁긴	-9.94833
▁테러로	-9.9489
세계	-9.9492
▁위원장	-9.94943
대에	-9.94962
▁알려	-9.9497
경제	-9.94974
같은	-9.9501
참	-9.9502
▁하락했다	-9.95049
▁충분	-9.95091
▁무력	-9.95151
▁스테	-9.95154
▁위해서	-9.95187
▁통치	-9.95245
▁왜	-9.95275
라도	-9.95299
▁말한	-9.95404
▁있었	-9.95491
▁태도	-9.95498
멘	-9.95626
▁승무원	-9.95633
렛	-9.95643
▁줄어들	-9.95644
▁아바스	-9.95646
▁며칠	-9.95654
▁형태	-9.95664
▁가격이	-9.95679
▁장애	-9.957
2008.0	-9.95724
▁예방	-9.95788
▁이웃	-9.95789
▁인식	-9.95807
▁근처	-9.95835
카르	-9.95836
▁기울	-9.95849
▁않기	-9.95904
▁지도부	-9.95905
▁아부	-9.96092
잔	-9.9611
▁도착했다	-9.96126
▁시청	-9.96404
사람	-9.96414
▁하며	-9.96457
혼	-9.96519
▁토요일	-9.96554
▁네팔	-9.9656
프라	-9.9659
개월간	-9.96623
▁문제로	-9.96872
▁최소한	-9.96873
▁색	-9.96935
푸	-9.96951
▁떨어졌다	-9.9699
▁살해한	-9.97006
▁방어	-9.97081
폴	-9.97081
휴	-9.97091
▁강도	-9.97099
▁않으면	-9.97102
▁자신들이	-9.97113
▁수사관	-9.97194
▁아직도	-9.97257
▁공정	-9.97263
▁콘	-9.97382
▁징역	-9.97444
▁시리즈	-9.97472
▁테이프	-9.97472
▁파타	-9.97505
더라도	-9.97508
▁노대통령	-9.97514
▁점령	-9.97551
▁FBI	-9.97635
▁돼	-9.97707
▁시민들	-9.97738
▁반발	-9.97747
▁지출	-9.9779
졌으며	-9.97901
▁입국	-9.97955
▁무시	-9.97963
▁낙	-9.9798
▁기타	-9.98036
▁송	-9.98096
de	-9.98132
▁생명	-9.98155
▁2007.0	-9.98221
군은	-9.98254
▁지휘	-9.98308
▁가자	-9.9838
▁일본은	-9.98384
▁순찰	-9.98416
▁장악	-9.98436
▁노벨	-9.98455
업자	-9.98462
▁형성	-9.98557
▁만들었다	-9.9864
12	-9.98793
ity	-9.98849
▁내린	-9.98888
▁전망이	-9.98964
▁결승	-9.98966
▁사용할	-9.9897
구역	-9.99102
소를	-9.99179
단은	-9.99204
▁대상	-9.99249
잉	-9.9928
되면	-9.99287
▁쉽게	-9.99332
▁근거	-9.99333
▁침해	-9.99345
▁탈출	-9.99372
▁솔	-9.99373
ess	-9.99427
▁타격	-9.99452
▁살아	-9.9947
▁감행	-9.99481
▁즉시	-9.99483
혔다	-9.99689
65	-9.99743
주간	-9.99753
26	-9.99817
▁통화	-9.99835
진다	-9.99865
시티	-9.99922
▁싸	-9.99936
걸	-9.99942
▁당한	-9.9995
▁요구하는	-9.99962
계획	-9.99981
오바마	-9.99982
▁상황에	-10
▁오하이오	-10.0002
▁끼	-10.0004
▁꾸	-10.0012
덴	-10.0024
셰	-10.0027
州	-10.0027
▁나타내	-10.0027
▁한번	-10.003
▁유럽연합	-10.0031
ma	-10.0036
▁연락	-10.0036
▁실망	-10.0037
▁직면	-10.0038
▁복제	-10.0042
▁기준	-10.0045
▁몰아	-10.0053
▁사령관	-10.0054
▁추측	-10.0056
▁전문가들	-10.0059
▁웹	-10.0062
44	-10.0065
age	-10.0075
▁것처럼	-10.0079
▁t	-10.0084
64	-10.0084
▁의문	-10.009
der	-10.0093
준다	-10.0094
▁주에서	-10.0095
그룹	-10.0099
15	-10.0102
▁방식	-10.0107
대회	-10.0116
▁한국과	-10.0118
헨	-10.0122
딜	-10.0122
Z	-10.0123
▁엘리자베스	-10.0123
램	-10.0123
픽	-10.0123
▁폭격	-10.0126
▁보기	-10.0127
▁선거운동	-10.0127
▁만족	-10.0128
▁의장은	-10.0129
▁복용	-10.0133
어스	-10.0144
▁상품	-10.0147
▁남북한	-10.0147
▁연관	-10.0148
▁중요하다	-10.0152
린다	-10.0158
▁토니	-10.0159
▁우주선	-10.016
주에서	-10.0171
ho	-10.0172
▁공화당의	-10.0173
곡	-10.0187
400	-10.0194
▁차관	-10.0194
▁지지자	-10.0198
달러에	-10.0203
▁니	-10.0209
▁봉	-10.0213
된다고	-10.0213
ear	-10.0216
▁소프트웨어	-10.0219
▁협조	-10.0219
컬	-10.0219
▁잭슨	-10.0219
▁활용	-10.0219
▁스위스	-10.0219
▁론스타	-10.0219
▁In	-10.0222
▁예술	-10.0222
▁끝난	-10.0224
▁말라	-10.0224
▁화산	-10.0226
지수	-10.0229
▁구글	-10.0229
▁육군	-10.023
▁MS	-10.0237
▁짐	-10.0239
번째로	-10.0242
▁속에서	-10.0244
▁대출	-10.0249
쳤	-10.0251
▁현장에서	-10.0252
ant	-10.0255
▁회담은	-10.0257
▁자산	-10.026
들어	-10.0261
▁결과가	-10.0268
육	-10.028
▁실제로	-10.0293
원들이	-10.0301
▁총선에서	-10.0303
괴	-10.0303
▁주로	-10.0305
▁매장	-10.0305
▁밝	-10.0308
▁이르는	-10.031
▁페르베	-10.0316
▁핵실험	-10.0316
▁김정일	-10.0316
▁갖추	-10.0318
▁축제	-10.0326
함에따라	-10.0329
▁""	-10.0333
이션	-10.0334
▁자격	-10.0336
▁대사는	-10.0341
▁신경	-10.0349
베리	-10.0353
▁우선	-10.036
▁잘못	-10.0361
▁킹	-10.0372
분의	-10.0379
▁홈	-10.0381
▁영국군	-10.0387
▁모습이	-10.0398
▁시위자들	-10.0401
▁일부는	-10.0403
▁지적	-10.0406
닌	-10.0406
리오	-10.0408
▁되면	-10.0412
▁일으키	-10.0414
▁기독교	-10.0414
▁사이클론	-10.0415
▁1997	-10.0416
ry	-10.0419
려고	-10.0421
▁등이	-10.0421
드라	-10.0425
▁귀국	-10.0427
▁결혼식	-10.0427
▁가는	-10.043
▁장치	-10.0431
▁공식적으로	-10.0433
▁신속	-10.0435
▁유리	-10.0442
▁조사하고	-10.0442
47	-10.0446
▁동물원	-10.0456
▁아래	-10.0456
▁관광객들	-10.0465
▁상점	-10.0467
사고	-10.0471
53	-10.0472
▁지연	-10.0496
▁Iraq	-10.0513
▁뉴질랜드	-10.0513
▁헤럴드	-10.0513
▁매들린	-10.0513
▁North	-10.0513
▁1998	-10.0513
qu	-10.0513
▁197	-10.0515
▁주는	-10.0521
▁내놓	-10.0523
대사	-10.0528
▁체포된	-10.0535
▁아르헨티나	-10.054
▁받아들이	-10.054
▁구체적인	-10.0541
46	-10.0543
득	-10.0546
▁파손	-10.0553
▁요구를	-10.0567
원들은	-10.0568
비치	-10.0574
▁걸어	-10.0579
▁총리와	-10.058
▁포함되어	-10.0596
칸	-10.0602
생활	-10.0603
▁길이	-10.0605
개발	-10.0609
▁CBS	-10.0613
▁드러났다	-10.0613
▁외곽	-10.0613
▁이끌어	-10.0613
정보	-10.0614
▁해고	-10.0615
um	-10.0615
7000	-10.0615
▁있으나	-10.0616
▁올렸다	-10.062
600	-10.0623
▁의료진	-10.0624
▁같	-10.0624
▁가입	-10.0626
▁기구	-10.0627
▁압둘라	-10.0629
▁수용소	-10.063
장인	-10.0642
▁나달	-10.0646
▁해산	-10.0658
▁마치	-10.0672
리그	-10.0673
▁인하	-10.0675
▁대단	-10.0682
▁사무	-10.0687
▁중이라고	-10.0692
ain	-10.0705
만큼	-10.0707
둘	-10.0708
▁가르	-10.0713
`	-10.0714
▁얘기	-10.0714
▁캠페인	-10.0714
켄	-10.0714
PPP	-10.0714
▁V	-10.0715
▁빛	-10.0717
49	-10.0717
52	-10.0717
▁벗어나	-10.0726
▁변경	-10.0727
▁r	-10.0739
▁성화	-10.0739
▁강경	-10.0744
▁보석	-10.0744
▁즐기	-10.0745
▁이곳에서	-10.0748
800	-10.0751
▁성공했다	-10.0757
▁이민	-10.0759
▁좋아	-10.0762
▁의도	-10.0772
BA	-10.0782
▁중국과	-10.0786
▁권고	-10.0793
객들	-10.0798
혁	-10.081
캐	-10.0811
▁리버풀	-10.0816
▁싱가포르	-10.0816
▁좋지	-10.0816
▁케네디	-10.0816
꾼	-10.0816
쾌	-10.0816
▁답변	-10.0817
▁달성	-10.0817
▁루이스	-10.0819
▁주인공	-10.082
▁행정	-10.082
▁국제적	-10.0821
▁불참	-10.0822
▁에이즈	-10.0822
▁폭행	-10.0823
▁지진으로	-10.0825
kg	-10.0825
▁만드는	-10.0826
려는	-10.0831
▁민주화	-10.0832
▁대부분은	-10.0832
▁상업	-10.0833
▁관여	-10.0836
▁영국에서	-10.0836
▁비교	-10.0839
▁실행	-10.084
▁경선에서	-10.0847
▁투자자들	-10.0848
▁포함해	-10.0849
▁등장	-10.086
▁어린이들	-10.0861
▁소개	-10.0864
▁학대	-10.0866
▁해결하기	-10.0868
▁중요	-10.0871
▁곳으로	-10.0878
▁주석	-10.0881
-3	-10.0888
▁전해	-10.0906
탁	-10.0909
ard	-10.0909
▁기자들	-10.0915
뜨	-10.0916
훈	-10.0919
▁DNA	-10.0919
▁맨체스터	-10.0919
▁우라늄	-10.0919
▁열린우리당	-10.0919
▁드라마	-10.0919
▁벌어진	-10.092
▁음반	-10.0922
▁방침	-10.0924
슬리	-10.0925
▁1980	-10.0926
▁않도록	-10.0928
▁안보리	-10.0933
▁반정부	-10.0934
▁행진	-10.0938
▁소요	-10.0942
▁회담에	-10.0943
▁목격	-10.0947
▁장식	-10.0948
▁음	-10.0957
4000	-10.0961
▁결승전	-10.0966
▁포드	-10.0967
▁그와	-10.0978
▁맞서	-10.0982
▁is	-10.0988
▁수영	-10.0988
결과	-10.0989
po	-10.0994
▁회원국	-10.0995
▁지수는	-10.0998
▁주고	-10.0998
조직	-10.1007
되었	-10.1008
▁혹	-10.1011
분간	-10.1012
▁터키군	-10.1013
핑	-10.1017
포트	-10.1023
▁포르투갈	-10.1023
▁휘발유	-10.1023
▁페일린	-10.1023
▁첼시	-10.1024
▁질환	-10.1026
▁가득	-10.1027
▁음모	-10.1028
EU	-10.1029
▁요구하고	-10.1031
▁때문이다	-10.1032
▁웃	-10.1035
바르	-10.1037
▁화학	-10.1038
▁조각	-10.1042
검사	-10.1051
부시	-10.1051
▁잔해	-10.1053
겼	-10.1054
▁기본	-10.1057
▁언급하지	-10.1067
▁감정	-10.1067
ang	-10.1069
▁자세	-10.1072
▁장비	-10.1074
▁중에는	-10.1084
▁다이	-10.1086
▁석	-10.1096
▁저는	-10.1105
▁덮	-10.1107
▁테러가	-10.1116
▁거절	-10.112
▁영화제	-10.1121
▁훨씬	-10.1128
죠	-10.1128
흉	-10.1128
▁믿고	-10.1128
▁베트남	-10.1128
해리포터	-10.1128
▁국제유가	-10.1129
당국	-10.1131
▁향후	-10.1132
▁1990	-10.1133
▁계획이	-10.1137
폭탄	-10.1141
▁문제는	-10.1146
77	-10.1156
바이	-10.1161
포드	-10.1167
▁파악	-10.1167
▁거주하는	-10.1177
▁폐지	-10.1193
▁회담이	-10.1202
▁250	-10.1203
▁생존자	-10.1205
▁경기에	-10.1208
▁장관이	-10.1221
당국은	-10.1222
▁크리스티	-10.1225
픈	-10.1229
▁유치	-10.1231
흑	-10.1233
켈	-10.1234
▁샌프란시스코	-10.1235
▁페더러	-10.1235
▁획득	-10.1235
▁로봇	-10.1235
▁묘사	-10.1235
▁운항	-10.1236
▁전면	-10.1239
▁공개했다	-10.1243
▁밀란	-10.1246
주일	-10.1247
오늘	-10.1247
▁지시	-10.1248
▁광장	-10.1249
▁영토	-10.1251
▁예정이며	-10.1251
▁기상	-10.1252
라드	-10.1253
▁불리는	-10.1257
▁존슨	-10.1258
▁주인	-10.1258
▁지목	-10.1258
국이	-10.1264
▁곡	-10.1268
▁병사들	-10.127
측이	-10.1274
▁추적	-10.1274
▁내용이	-10.128
▁2009.0	-10.128
▁외부	-10.1292
▁소니	-10.1299
▁프레	-10.1304
▁입수	-10.1311
▁노동자	-10.1326
▁중부	-10.133
렬	-10.1338
▁테러범	-10.1339
됐고	-10.1339
회담	-10.1342
▁집에	-10.1342
핀	-10.1342
!	-10.1342
▁모스크바	-10.1342
▁밖으로	-10.1342
룰	-10.1342
▁랭킹	-10.1342
▁콘서트	-10.1342
▁반기문	-10.1342
▁검색	-10.1342
▁얼음	-10.1343
▁맨유	-10.1343
▁나쁜	-10.1344
▁빚	-10.1348
곤	-10.1348
▁작동	-10.1348
▁pro	-10.1351
콘	-10.1351
콜	-10.1351
▁폭우	-10.1355
to	-10.1356
▁치르	-10.1356
네스	-10.1357
▁이것이	-10.1359
스티	-10.1359
▁초대	-10.136
▁빅	-10.1362
▁한국군	-10.1365
▁샌	-10.1369
▁시절	-10.1371
▁대결	-10.1374
▁워싱턴에서	-10.1375
▁단체는	-10.1379
▁주장하는	-10.1381
▁편지	-10.1386
었으나	-10.1391
▁행성	-10.1406
▁희생자들	-10.1406
▁학생들이	-10.1408
ong	-10.1417
작전	-10.1419
▁도달	-10.1433
▁주간	-10.144
들로부터	-10.1444
▁전개	-10.1445
장치	-10.1446
▁South	-10.1451
둥	-10.1451
튜	-10.1451
▁온난화	-10.1451
▁세계대전	-10.1451
▁금요일	-10.1451
▁이메일	-10.1452
▁38	-10.1453
▁목격자들	-10.1453
▁둘러	-10.1455
▁접속	-10.1456
▁중재	-10.1456
▁목격자	-10.1456
▁토론회	-10.1459
▁야생	-10.146
▁것보다	-10.146
▁소환	-10.1461
▁에이	-10.1462
▁협회	-10.1464
맥	-10.1465
▁탐	-10.1465
▁입양	-10.1466
▁밑	-10.1467
듯	-10.1467
▁심슨	-10.1469
▁지정	-10.1471
▁예비	-10.1476
z	-10.1485
대학	-10.1486
▁잃었다	-10.1493
▁고객	-10.1495
▁방문할	-10.1497
▁당선인은	-10.15
▁남쪽	-10.1503
▁무대	-10.1505
▁취하	-10.1512
적이고	-10.1515
▁꿈	-10.1517
▁속도	-10.1521
▁방법으로	-10.1521
▁충분한	-10.1526
▁방지	-10.1527
""	-10.153
▁잡지	-10.1533
▁바그다드에서	-10.1536
국은	-10.1547
년에는	-10.1548
아메리칸	-10.1561
현지시각	-10.1561
▁특파원	-10.1561
▁9.11	-10.1561
▁측근	-10.1562
▁앨범	-10.1563
▁주식시장	-10.1563
▁영변	-10.1565
안전	-10.1565
▁학살	-10.1567
▁성향	-10.157
▁리비아	-10.1572
▁주문	-10.1573
▁말합니다	-10.1579
펜	-10.158
홀	-10.158
▁밖에서	-10.1587
▁조사에서	-10.1592
▁하이	-10.1593
▁부근	-10.1598
▁신체	-10.1601
tion	-10.1601
기술	-10.1604
모든	-10.1612
▁방문했다	-10.1612
▁이들이	-10.1616
▁n	-10.1616
▁사법	-10.1617
▁생각하고	-10.1618
▁의무	-10.1625
▁선물	-10.1631
are	-10.1635
▁의원들은	-10.165
러스	-10.1654
되자	-10.1654
▁남아	-10.1659
▁용의자들	-10.1661
▁CIA	-10.1663
탑	-10.1672
아메리카	-10.1672
▁이란은	-10.1674
▁리콜	-10.1676
▁허락	-10.1677
▁합동	-10.1678
▁저항	-10.1679
▁사무총장	-10.1679
▁카페	-10.1682
85	-10.1687
그들은	-10.1691
▁취할	-10.1693
▁진행된	-10.1698
100	-10.17
▁미국에	-10.1701
▁내전	-10.1704
▁수집	-10.1704
▁공중	-10.1709
▁주목	-10.1709
▁출시	-10.171
▁예상했다	-10.1711
▁체니	-10.1711
▁특별한	-10.1719
▁윤	-10.1725
므로	-10.1727
련	-10.1727
▁생존	-10.1728
트라	-10.1733
▁논란	-10.1733
man	-10.1748
▁성과	-10.1767
▁원하는	-10.1774
▁경기장	-10.1776
▁레이스	-10.1777
컴	-10.1782
롬	-10.1784
밍	-10.1784
▁않았으며	-10.1784
▁유나이티드	-10.1784
▁계획에	-10.1786
▁편집	-10.179
군의	-10.1795
▁자기	-10.1795
▁이익	-10.18
지구	-10.1802
▁모양	-10.1806
우드	-10.181
작업	-10.1811
전에서	-10.1812
미군	-10.1815
▁시작한	-10.1819
▁Re	-10.1826
▁에어	-10.1836
▁후임	-10.1841
▁대부분이	-10.1842
▁다니	-10.1843
▁철도	-10.1847
ab	-10.1864
▁에드	-10.1869
▁마시	-10.1871
14	-10.1876
빠	-10.1881
▁사건과	-10.1881
▁이사	-10.1885
럭	-10.1897
넬	-10.1898
▁붉은	-10.1898
▁찾고	-10.1898
▁쿠데타	-10.1898
▁헤즈볼라	-10.1898
롱	-10.1898
짝	-10.1898
▁대다수	-10.1899
▁회견	-10.19
▁봄	-10.19
▁사건으로	-10.1903
▁핵시설	-10.1903
죄	-10.1908
▁기능	-10.1912
▁격차	-10.1914
▁다우	-10.1915
▁보면	-10.1919
res	-10.1923
놀	-10.1928
▁이번주	-10.193
싸	-10.1931
▁처음이다	-10.1932
▁서방	-10.1935
▁36	-10.1936
량이	-10.1957
원인	-10.196
▁아일랜드	-10.1967
사항	-10.198
82	-10.1984
▁바라고	-10.1987
▁보이	-10.1989
▁tr	-10.1992
▁교사	-10.201
▁멸종	-10.2013
[	-10.2013
▁with	-10.2013
▁우주비행사	-10.2013
▁장례식	-10.2013
셉	-10.2013
첸	-10.2013
▁여자친구	-10.2013
▁아이오와	-10.2013
▁겨울	-10.2013
▁수요	-10.2015
▁가까이	-10.2016
cm	-10.2017
▁린	-10.2018
어져	-10.202
▁발표된	-10.2021
▁마틴	-10.2022
▁걸릴	-10.2022
▁체결	-10.2024
▁37	-10.2025
▁만날	-10.2026
▁복구	-10.2027
▁나서	-10.203
▁전투기	-10.203
▁차드	-10.2032
tr	-10.2039
▁폭발물	-10.2044
조차	-10.2045
56	-10.2046
▁산타	-10.205
▁의회의	-10.2059
▁어디	-10.2062
▁파티	-10.2067
▁클라	-10.2071
지수는	-10.2081
▁톰	-10.2087
300	-10.2093
▁프라	-10.21
▁현재까지	-10.21
장의	-10.2102
▁중국에서	-10.2104
▁경찰서장	-10.2128
▁다이아몬드	-10.2129
▁떨어지	-10.2129
엑	-10.2129
▁CEO	-10.2129
▁알래스카	-10.2129
▁옮겨	-10.2129
▁적십자	-10.2129
▁일환으로	-10.2129
▁다르푸르	-10.2129
84	-10.2132
▁웨스트	-10.2134
자리	-10.2142
연맹	-10.2145
▁특정	-10.2145
▁나누	-10.2146
▁동반	-10.2148
▁물러	-10.215
되어야	-10.2153
▁심문	-10.2157
츠는	-10.2162
ke	-10.2163
▁수감자	-10.2163
쓰	-10.2166
▁신호	-10.2175
▁추정되는	-10.2175
▁절대	-10.2189
▁최초로	-10.2202
▁평화적	-10.2221
냉	-10.2246
▁다우존스	-10.2247
▁달라이라마	-10.2247
▁답	-10.2247
▁설득	-10.2248
▁FTA	-10.2249
▁자치	-10.2252
▁그레	-10.2253
져야	-10.2253
▁교환	-10.2253
▁증권	-10.2258
▁오염	-10.226
▁일주일	-10.226
▁치러진	-10.2261
▁식당	-10.2264
13	-10.2268
▁물건	-10.2272
▁보통	-10.2278
타르	-10.2281
▁희	-10.2284
▁사실상	-10.2288
▁니콜	-10.2292
▁파산	-10.2293
민주당	-10.2298
39	-10.2298
▁불과	-10.2301
▁잠시	-10.2301
▁요인	-10.2312
했기	-10.2328
90	-10.2329
ts	-10.2331
▁회원	-10.2335
▁기도	-10.2338
▁아이들이	-10.2347
▁달라	-10.2348
▁이스라엘과	-10.2356
▁내에	-10.236
춘	-10.2362
섭	-10.2364
▁둘	-10.2366
]	-10.2366
▁얻어	-10.2366
퀴	-10.2366
▁더불어	-10.2366
▁쇼핑	-10.2366
▁발굴	-10.2368
▁바꾸	-10.2368
▁생물	-10.2369
▁폭락	-10.237
▁행복	-10.2372
해왔	-10.2373
ational	-10.2374
▁어려운	-10.2374
▁커피	-10.2377
▁50%	-10.2377
▁않지만	-10.2377
▁그리	-10.238
원제	-10.2381
시키려	-10.2382
정부는	-10.2386
▁이스라엘군	-10.2391
▁강요	-10.2392
▁통신은	-10.2394
▁세워	-10.2398
▁재건	-10.2399
▁제안했다	-10.2403
▁친구들	-10.2405
삼	-10.241
▁광산	-10.2411
농	-10.2411
라이브	-10.2416
홍	-10.2416
-2	-10.2419
▁업계	-10.242
our	-10.2437
▁보고했다	-10.2441
오는	-10.2446
45	-10.245
▁목적으로	-10.2467
요원	-10.2468
▁국회의원	-10.2473
▁기업들	-10.2474
▁경보	-10.2478
닥	-10.2479
▁FARC	-10.2481
PA	-10.2481
묘	-10.2484
▁멜	-10.2485
부대	-10.2486
▁됩니다	-10.2486
▁스리랑카	-10.2486
▁앉아	-10.2486
▁에드워즈	-10.2486
▁코미디	-10.2486
▁갑자	-10.2488
▁사냥	-10.2489
▁북극	-10.249
▁담당자	-10.2493
▁출석	-10.2494
▁열리	-10.2496
위기	-10.2498
▁확산되	-10.2499
▁매각	-10.25
▁도입	-10.2506
▁배출	-10.2507
out	-10.2507
▁밝히고	-10.2509
▁조합	-10.2509
▁항소	-10.2512
차전	-10.2513
후드	-10.2516
▁신임	-10.2518
▁거두	-10.2519
▁계속되고	-10.2522
▁소비자들	-10.2522
ill	-10.2525
▁적절한	-10.2526
뿐	-10.254
▁선보	-10.2542
▁시장에서	-10.2543
▁투어	-10.2543
▁결정은	-10.2563
▁지상	-10.2564
▁된다고	-10.2565
▁지점	-10.2568
▁의회는	-10.257
▁의식	-10.257
▁회사들	-10.2571
▁기분	-10.2572
라면	-10.2577
▁고대	-10.2577
▁있어서	-10.2582
▁벽	-10.259
▁공격이	-10.2592
▁윈	-10.2595
룬	-10.2603
님	-10.2606
멸	-10.2608
쇠	-10.2608
▁방글라데시	-10.2608
▁오스트리아	-10.2608
떼	-10.2608
렐	-10.2608
콤	-10.2608
▁칠레	-10.2609
▁NBC	-10.261
▁것이라며	-10.2611
년이	-10.2612
▁데이터	-10.2613
▁단순	-10.2613
빠진	-10.2615
▁기존	-10.2619
▁성관계	-10.2619
▁서울에서	-10.2626
▁자본	-10.2628
▁원한다	-10.2634
▁협상이	-10.2641
▁북측	-10.2643
63	-10.2645
ha	-10.2647
만약	-10.2649
최	-10.265
▁St	-10.2658
납	-10.2662
이슬람	-10.2666
국민	-10.2677
▁호세	-10.2677
▁아동	-10.2683
▁사인	-10.2684
▁윌	-10.2685
▁사전	-10.2687
▁넓	-10.2692
페이지	-10.27
▁부근에서	-10.27
▁사용한	-10.2703
▁그림	-10.2706
▁테러리스트	-10.2709
▁외교적	-10.2712
▁소수	-10.2717
랭	-10.2732
▁노스캐롤라이나	-10.2732
▁봉쇄	-10.2732
▁공산당	-10.2732
▁합류	-10.2736
▁시드	-10.2737
ance	-10.2737
▁48	-10.2738
▁폭동	-10.2741
tor	-10.2742
▁치열	-10.2742
▁방영	-10.2743
▁sh	-10.2743
▁의존	-10.2745
▁적은	-10.2746
▁부담	-10.2748
▁화물	-10.2749
▁사용되	-10.2752
▁예상되	-10.2758
▁청소년	-10.276
▁해양	-10.2762
▁피난	-10.2765
▁美	-10.2766
했음	-10.2767
▁고소	-10.2767
▁제도	-10.2775
▁노력하고	-10.2776
▁버마	-10.2777
▁각국	-10.278
▁본사	-10.2782
▁되기	-10.2787
900	-10.2788
냈	-10.2789
▁후원	-10.2791
▁중독	-10.2794
파키스탄	-10.2794
BC	-10.2799
▁해병대	-10.2801
▁수송	-10.2808
됐을	-10.2811
▁상승했다	-10.2813
▁부여	-10.2816
▁수상자	-10.2818
▁시위에	-10.282
수사	-10.2822
▁스키	-10.2824
▁아르	-10.2828
세력	-10.2829
▁말까지	-10.2834
▁펜	-10.2836
▁책임자	-10.2841
께	-10.285
흘	-10.2857
룩	-10.2857
▁없으며	-10.2857
▁나이지리아	-10.2857
▁카르자이	-10.2857
▁마카오	-10.2857
▁흡연	-10.2857
▁재무장관	-10.2857
▁검거	-10.2857
ress	-10.2859
▁하늘	-10.2859
▁낸	-10.286
▁농축	-10.2861
아야	-10.2861
▁가옥	-10.2863
▁치명적	-10.2863
▁식품	-10.2864
▁실시되	-10.2867
▁많다	-10.2867
▁하다	-10.2876
▁나갈	-10.2877
▁통계	-10.2877
▁대항	-10.2878
▁노동자들	-10.2878
▁현실	-10.2879
▁세상	-10.288
▁승리했다	-10.2882
▁소설	-10.2884
조원	-10.2885
▁묵	-10.2887
▁일본에서	-10.289
▁어려	-10.2891
▁측정	-10.2893
▁보관	-10.2899
▁조성	-10.2904
▁골드	-10.2908
머니	-10.2914
된다면	-10.2915
됐었다	-10.2917
▁세우	-10.2922
▁잇	-10.2924
54	-10.2926
▁공항에서	-10.2931
▁구조대	-10.2936
▁일본이	-10.2939
▁대통령에	-10.2942
▁소식이	-10.2943
상황	-10.2943
▁의지	-10.2946
▁연주	-10.2948
▁북쪽	-10.2948
▁오브	-10.2949
▁만화	-10.2956
레나	-10.2957
▁로한	-10.2958
▁의회에	-10.2958
관련	-10.2968
장으로	-10.2974
▁전날	-10.298
▁고등학교	-10.2983
▁네트워크	-10.2983
▁훌륭	-10.2983
큐	-10.2983
▁파예드	-10.2983
▁습격	-10.2984
▁카스트로	-10.2984
▁복잡	-10.2987
▁관람	-10.2987
▁목록	-10.2987
▁혁명	-10.2987
▁51	-10.2988
▁건축	-10.2988
▁극복	-10.299
▁시드니	-10.2992
▁인류	-10.2994
▁취재	-10.2999
▁망	-10.3001
▁최선	-10.3004
▁페루	-10.3007
▁구출	-10.3009
▁보복	-10.3011
▁증가하고	-10.3018
▁개방	-10.3021
정도	-10.3026
▁베르	-10.3036
▁내릴	-10.3036
▁트리	-10.3037
▁체제	-10.3051
칼	-10.3052
▁유가	-10.3052
브레	-10.3052
▁기다리고	-10.3056
▁이하	-10.3057
▁국경지역	-10.306
▁지수	-10.3066
러시아	-10.3068
기지	-10.3072
▁이유는	-10.3072
▁모인	-10.3076
위원장	-10.3079
▁사드르	-10.3081
▁자리에서	-10.3082
▁야기	-10.3083
▁맞이	-10.3084
▁부과	-10.3085
one	-10.3093
▁경쟁자	-10.3101
▁왕세자	-10.3103
끄	-10.3111
넷	-10.3111
덜	-10.3112
▁스웨덴	-10.3112
▁훼손	-10.3112
▁거뒀다	-10.3112
▁북동부	-10.3112
▁혜택	-10.3112
IOC	-10.3112
▁숫자	-10.3112
New	-10.3112
▁콩고	-10.3115
▁남아공	-10.3116
▁패션	-10.3116
▁클레	-10.3118
▁출판	-10.3119
▁있었고	-10.312
▁말하는	-10.3122
▁인종	-10.3125
▁움직이	-10.3127
▁순방	-10.3127
▁풀어	-10.3129
▁발병	-10.3134
▁돌려	-10.3134
▁상처	-10.3136
▁모색	-10.3136
워터	-10.3137
▁의학	-10.3137
생물학	-10.3139
▁선언했다	-10.3141
▁태평양	-10.3148
▁조기	-10.3155
다시	-10.3158
ba	-10.3162
▁나아	-10.3163
▁그동안	-10.3166
▁유감	-10.3174
▁일간	-10.3182
▁불러	-10.3182
값	-10.3187
해줄	-10.3195
▁방화	-10.3208
▁유대인	-10.3213
▁털	-10.3215
76	-10.3219
▁분석가	-10.3222
지난	-10.3237
가격	-10.3237
69	-10.3238
흔	-10.3238
흥	-10.3241
첨	-10.3241
혜	-10.3241
▁되찾	-10.3242
릿	-10.3242
▁덴마크	-10.3242
▁얻기	-10.3242
▁이렇게	-10.3242
▁정확히	-10.3242
▁펼치	-10.3242
나갔다	-10.3242
FRB	-10.3242
▁이재민	-10.3242
닷컴	-10.3242
▁이뤄지	-10.3242
ure	-10.3244
▁이주	-10.3244
스틴	-10.3245
▁고향	-10.325
▁의회에서	-10.325
▁출동	-10.3253
전쟁	-10.3253
아나	-10.3254
AN	-10.3254
▁명예	-10.3256
▁2010	-10.3256
▁사담	-10.3259
▁비율	-10.3263
▁지도자들은	-10.3264
▁진실	-10.3266
▁지진이	-10.327
▁세포	-10.3279
▁AC	-10.3279
▁베이징에서	-10.3282
▁미국인들	-10.3284
▁10%	-10.3291
▁로비	-10.3292
▁현금	-10.3295
하고자	-10.3306
기업	-10.3307
▁올린	-10.3307
▁경호원	-10.3312
2009.0	-10.3317
플레	-10.3319
답	-10.332
현재	-10.3337
▁반군이	-10.3337
▁시내	-10.3343
시위	-10.3347
▁환자들	-10.3349
명에게	-10.3362
▁플레이	-10.3365
콩	-10.337
▁주제	-10.3371
웅	-10.3371
NATO	-10.3373
UEFA	-10.3373
틸	-10.3373
▁마찬가지	-10.3373
▁챔피언스리그	-10.3373
▁will	-10.3374
▁커플	-10.3378
▁레알	-10.3379
▁영업	-10.3382
▁거부했다	-10.3385
장과	-10.3386
▁일리노이주	-10.339
▁인공	-10.339
▁자극	-10.339
▁입증	-10.339
▁대가로	-10.3392
▁메이	-10.3395
▁만난	-10.3395
▁고발	-10.3397
▁말리키	-10.3397
▁선발	-10.34
▁노리	-10.3405
▁발생했으며	-10.341
세인	-10.3413
▁향하	-10.3436
▁유력	-10.3437
▁시위대는	-10.3443
18	-10.3451
희	-10.3458
▁앨	-10.3466
연구소	-10.3467
▁주최	-10.3469
▁제공하는	-10.348
▁실패했다	-10.3483
▁가했다	-10.3487
▁말해	-10.3493
ie	-10.3494
평화	-10.3495
▁마치고	-10.3501
▁Japan	-10.3506
갤	-10.3506
▁예루살렘	-10.3506
▁청문회	-10.3506
▁남동부	-10.3506
▁plan	-10.3506
▁엄청	-10.3507
2008.12	-10.3508
▁코커스	-10.3508
▁새끼	-10.351
섹스	-10.3511
▁장착	-10.3513
▁과격	-10.3514
16	-10.3522
▁체계	-10.3524
▁숙	-10.3524
▁노예	-10.3525
▁임금	-10.3531
▁초점	-10.3544
▁배경	-10.3544
IS	-10.3547
드시	-10.3549
▁공화국	-10.3553
▁진화	-10.3557
▁카드	-10.357
▁본선	-10.3577
스테	-10.3578
지금	-10.3579
▁남아있	-10.3584
▁보인다고	-10.3584
▁IAEA	-10.3587
▁보안군	-10.3589
▁발생하지	-10.3597
팔	-10.3598
▁권한	-10.3609
▁있다면	-10.3619
정부가	-10.3635
▁그것이	-10.3641
▁성화봉송	-10.3642
▁외교통상부	-10.3642
▁활주로	-10.3642
뱀	-10.3642
웬	-10.3642
▁폴란드	-10.3642
▁디즈니	-10.3642
▁네바다	-10.3642
▁완벽	-10.3642
▁600	-10.3642
▁다니엘	-10.3643
▁민족	-10.3644
24	-10.3648
▁멀	-10.3649
▁경영	-10.3652
▁분열	-10.3652
21	-10.3653
▁셀	-10.3654
▁사장은	-10.3655
▁압수	-10.3659
▁소매	-10.3659
▁받아야	-10.3664
▁봉사	-10.3665
▁이양	-10.3667
민주	-10.3672
37	-10.3673
▁중순	-10.3675
▁대회에서	-10.3676
▁수업	-10.3681
본부	-10.3682
▁델	-10.3684
av	-10.3689
▁달려	-10.3693
리스트	-10.3713
ell	-10.3729
▁열대	-10.373
▁노인	-10.3743
▁방향	-10.3747
▁대선에서	-10.3753
축구	-10.3764
▁갖는	-10.3774
▁인디애나	-10.3779
렘	-10.3779
▁크루즈	-10.3779
▁아이디어	-10.3779
▁리조트	-10.3779
▁삭제	-10.3779
▁싸움	-10.378
▁타이틀	-10.3781
▁중간	-10.3781
▁관찰	-10.3783
ood	-10.3783
▁합병	-10.3784
▁모기지	-10.3784
▁무죄	-10.3784
▁있었지만	-10.3786
▁보잉	-10.3786
▁생긴	-10.3787
▁납치된	-10.3788
▁관영	-10.3789
안보	-10.379
▁빙하	-10.379
▁아니면	-10.3791
▁복무	-10.3792
▁출산	-10.3792
▁군정	-10.3792
▁분명히	-10.3794
▁철군	-10.3795
▁조사에	-10.3796
▁고립	-10.3796
천만	-10.3798
▁이중	-10.3799
▁PC	-10.3802
6000	-10.3802
행사	-10.3803
▁연행	-10.3805
▁실적	-10.381
▁견해	-10.3812
▁드러	-10.3815
▁대량	-10.3821
▁높아지	-10.3822
▁구금	-10.3825
되었고	-10.3831
▁따르	-10.3832
▁발간	-10.3833
디아	-10.3834
수록	-10.384
▁공유	-10.3847
▁중지	-10.3848
▁캘리포니아주	-10.3851
▁유전자	-10.3855
▁기차	-10.3858
으면서	-10.3861
▁난사	-10.3867
피트	-10.387
▁착용	-10.3871
▁런던에서	-10.3872
미니	-10.3872
▁전통적	-10.3876
▁수상했다	-10.388
ome	-10.3888
범죄	-10.3888
짜	-10.3891
마르	-10.3891
▁했지만	-10.3893
▁인사들	-10.3893
▁승객들	-10.3899
▁폭탄이	-10.3904
쉽	-10.3912
곰	-10.3917
▁라스베이거스	-10.3917
▁봤다	-10.3917
▁크라이슬러	-10.3917
▁태어난	-10.3917
▁토마스	-10.3918
IC	-10.3918
▁운송	-10.3918
▁뉴욕에서	-10.392
▁채택	-10.3923
▁피해가	-10.3924
▁방송국	-10.3928
▁표했다	-10.3928
▁은퇴	-10.3928
▁독재	-10.3928
▁회동	-10.3929
▁과학자	-10.393
▁계획이라고	-10.3931
▁일반적으로	-10.3932
▁지시했다	-10.3932
금지	-10.3936
▁청구	-10.3941
▁위원회는	-10.3942
▁갖게	-10.3942
▁주지사가	-10.3946
▁제조업체	-10.3958
▁총격전	-10.3958
▁축	-10.3958
▁돌아오	-10.3959
oll	-10.3963
▁서신	-10.3965
ice	-10.397
ide	-10.397
99	-10.3976
▁위조	-10.3977
버스	-10.4001
▁기대하고	-10.4003
▁주한	-10.4006
▁보고서에서	-10.4007
응	-10.4014
▁안전한	-10.4016
디스	-10.4018
▁부서	-10.4021
짐	-10.4024
벤	-10.4029
앤	-10.4029
▁의미한다	-10.403
▁고어	-10.4038
▁주지	-10.404
미터	-10.4047
캔	-10.4057
영국	-10.4058
▁사우디아라비아	-10.4058
▁쏟아	-10.4058
▁협박	-10.4058
댄	-10.4058
▁이루어지	-10.4058
▁심지어	-10.4059
▁보여줬다	-10.4059
▁빈곤	-10.406
▁하원의원	-10.4061
▁매춘	-10.4062
▁면담	-10.4062
▁응급	-10.4062
▁수감자들	-10.4064
▁2012	-10.4066
▁항구	-10.407
▁누리	-10.407
▁명백	-10.407
▁보낼	-10.4071
▁지역으로	-10.4072
▁카불	-10.4074
▁거쳐	-10.4078
▁실종된	-10.4088
▁기금	-10.4095
▁대학교	-10.4097
▁재난	-10.4102
▁보유하고	-10.4102
▁유발	-10.411
일본	-10.4115
▁하면	-10.4117
▁시장에	-10.4117
▁재단	-10.4128
▁크레	-10.4136
▁돼지	-10.4137
명도	-10.414
▁싶어	-10.4143
▁자세한	-10.4143
▁척	-10.4155
▁42	-10.4158
▁안에서	-10.4167
▁로드	-10.4167
현지	-10.417
95	-10.417
▁무선	-10.4171
타운	-10.4175
김	-10.4175
▁이사회	-10.4175
카운티	-10.4176
시대	-10.4181
▁나오는	-10.4182
▁치러	-10.4186
▁명은	-10.4187
▁뼈	-10.419
담당	-10.4197
▁바르셀로나	-10.4201
▁펼쳐	-10.4201
▁휴대전화	-10.4201
▁1994	-10.4201
▁논평	-10.4201
▁누군가	-10.4201
▁엄격	-10.4201
▁베를린	-10.4201
▁기부	-10.4202
느냐	-10.4203
▁케이블	-10.4204
▁해결책	-10.4207
▁철저	-10.4207
▁하와이	-10.4209
▁작용	-10.4212
▁마쳤다	-10.4216
▁단속	-10.422
▁CD	-10.4223
▁형제	-10.4223
▁생각하는	-10.4231
▁추정된다	-10.4233
▁사장	-10.4235
▁신발	-10.4236
▁승리한	-10.4238
▁무료	-10.424
▁만들어진	-10.4259
▁값	-10.426
▁이것	-10.4264
▁못하게	-10.4264
▁듀	-10.4269
▁호텔에서	-10.4272
▁영장	-10.429
▁리그	-10.4305
▁시사	-10.432
밤	-10.4324
▁동성애자	-10.434
기록	-10.4345
▁동티모르	-10.4346
▁펼쳤다	-10.4346
끈	-10.4346
춤	-10.4346
▁쓰나미	-10.4346
WHO	-10.4346
▁파트너	-10.4346
▁에어버스	-10.4346
▁주한미군	-10.4347
▁외환은행	-10.4347
▁바스라	-10.4347
▁요리	-10.4348
▁급등	-10.4351
▁디자인	-10.4353
▁두바이	-10.4357
▁상태에	-10.4359
▁사령관은	-10.4364
되었으며	-10.4368
▁대학생	-10.4371
▁3000	-10.4372
▁하던	-10.4375
▁시각	-10.4382
스타인	-10.4382
▁골프	-10.4383
▁중심부	-10.4387
▁신중	-10.4389
▁여권	-10.439
mb	-10.4393
▁간단	-10.4395
▁한때	-10.4399
▁의석	-10.4401
▁책임이	-10.4409
▁논란이	-10.4412
▁기계	-10.4419
▁회의에서	-10.4422
차량	-10.4426
병원	-10.4428
더스	-10.444
ast	-10.4447
점으로	-10.4449
▁못한다	-10.4451
▁말하며	-10.4453
17	-10.4461
활	-10.4464
짓	-10.4471
▁공간	-10.4473
되었던	-10.4474
▁발생하는	-10.4477
아버지	-10.4483
있었다	-10.4486
▁비용이	-10.449
▁일으킨	-10.4493
엠	-10.4493
킬로미터	-10.4493
틱	-10.4493
▁그렇지	-10.4493
▁이루어졌다	-10.4493
▁불능화	-10.4493
▁차관보는	-10.4493
▁송환	-10.4495
▁(=	-10.4495
▁저지른	-10.4496
▁당신이	-10.4497
ence	-10.4499
▁바닥	-10.4503
▁처해	-10.4503
rea	-10.4504
▁기밀	-10.4511
스케	-10.4513
▁나올	-10.4513
▁참석했다	-10.4516
▁보트	-10.4518
▁초래	-10.452
▁광부	-10.452
▁su	-10.452
돼있다	-10.4521
위안	-10.4523
▁앞에	-10.4523
▁맛	-10.4524
▁존중	-10.4526
▁첫번째	-10.4528
슬러	-10.453
▁점차	-10.4534
▁130	-10.4536
▁공포	-10.4539
22	-10.4551
▁사회적	-10.4562
▁응답자	-10.4565
▁도시에서	-10.4566
▁자문	-10.4569
▁우리당	-10.4569
학생	-10.4571
▁케리	-10.4571
▁마비	-10.4579
▁높아	-10.4594
▁운전자	-10.4597
▁유전	-10.4601
▁마감했다	-10.4605
79	-10.4605
▁예수	-10.4606
▁이곳에	-10.4607
▁서울시	-10.4611
이었으며	-10.4612
▁검사는	-10.4619
▁못해	-10.4621
▁한국에서	-10.4628
이스라엘	-10.463
솔	-10.4631
규모	-10.4635
따	-10.4637
▁리처드	-10.4639
▁휩싸	-10.4642
▁레스토랑	-10.4642
▁선거캠프	-10.4642
꽃	-10.4642
▁김대중	-10.4642
▁흥분	-10.4643
▁벌어지	-10.4643
▁우리나라	-10.4643
▁적극적	-10.4644
▁여학생	-10.4645
▁신부	-10.4648
▁검은	-10.4652
▁받았으며	-10.4653
▁종류	-10.4657
▁세계은행	-10.466
교회	-10.4661
▁노동당	-10.4662
▁개표	-10.4664
▁지켜보	-10.4665
▁북미	-10.4667
8000	-10.4671
▁특수	-10.4675
▁라고	-10.468
▁발전소	-10.4682
▁표명	-10.4682
▁유출	-10.4687
▁상공	-10.4693
▁답했다	-10.4694
▁위로	-10.4709
▁아니었다	-10.471
▁자유를	-10.471
▁가구	-10.4712
받았다	-10.4716
▁공약	-10.4716
▁제기했다	-10.4717
ail	-10.4729
▁선전	-10.4732
▁백악관은	-10.4742
베나	-10.4743
▁불가능	-10.4747
▁국방	-10.4751
▁전사	-10.4754
35	-10.4761
▁측은	-10.4763
▁비판했다	-10.4764
▁압둘	-10.4771
▁일리노이	-10.4775
제대로	-10.4781
▁생일	-10.4782
학자들	-10.4788
빛	-10.479
촉	-10.4793
첩	-10.4793
0,000	-10.4794
▁만났다	-10.4794
▁곤잘레스	-10.4794
▁콜로라도	-10.4794
▁구제금융	-10.4794
▁헨리	-10.4795
▁핵프로그램	-10.4795
▁숀	-10.4797
▁고위관리	-10.4798
▁부정적	-10.4799
▁강풍	-10.48
▁미국측	-10.4801
▁경영진	-10.4801
▁테스트	-10.4805
▁인생	-10.4807
▁것이었다	-10.4807
▁1970	-10.4808
해질	-10.4808
▁34	-10.481
▁죽은	-10.4812
▁그래서	-10.4812
▁도망	-10.4816
▁피트	-10.4817
▁백인	-10.4819
▁이슬람교	-10.482
▁보도에따르면	-10.482
▁따라서	-10.4825
▁벗	-10.4826
▁상어	-10.483
▁뇌물	-10.4837
▁예전	-10.484
▁De	-10.4843
▁기자들에게	-10.4843
▁차단	-10.485
▁나이트	-10.485
▁다루	-10.4853
▁불길	-10.4853
▁요소	-10.4867
▁신분	-10.4881
▁지질	-10.4887
달라고	-10.4888
▁총장은	-10.4889
연대	-10.4891
▁사망자수	-10.4893
iz	-10.4899
총리	-10.4906
국제	-10.4907
▁근로자	-10.4908
▁주기	-10.491
스탄	-10.4912
▁당수	-10.4913
▁시티	-10.493
흡	-10.4945
▁뿐만아니라	-10.4946
▁들어갔다	-10.4948
▁나스닥	-10.4948
▁북서부	-10.4948
▁침입	-10.4948
▁와인하우스	-10.4948
▁방콕	-10.4949
▁자유롭	-10.4951
▁화장실	-10.4951
▁과도	-10.4951
▁ABC	-10.4952
▁직업	-10.4953
▁법안이	-10.4953
▁전역에	-10.4953
▁출입	-10.4953
변화	-10.4958
▁40%	-10.496
▁사막	-10.4961
▁진영	-10.4961
ens	-10.4961
▁산림	-10.4963
▁개장	-10.4966
▁화면	-10.4966
▁쓴	-10.497
▁돌파	-10.498
자들과	-10.498
▁올려	-10.4984
▁칼리	-10.4987
노동	-10.4995
▁해임	-10.4998
▁미술	-10.5
▁사용될	-10.5001
▁내정	-10.5002
▁가졌	-10.5002
▁논의하기	-10.501
▁자원	-10.5013
▁가능하다	-10.5014
74	-10.5017
▁세대	-10.5018
ther	-10.5027
▁33	-10.5051
▁해적	-10.5052
▁고객들	-10.5053
▁집으로	-10.5068
▁시민들이	-10.507
▁경비	-10.5082
▁사용자	-10.5089
▁두번째	-10.5092
▁800	-10.5092
▁요르단	-10.5102
랙	-10.5104
▁President	-10.5104
▁궤도	-10.5104
▁떠났다	-10.5104
▁블라디미	-10.5104
▁스코틀랜드	-10.5104
▁없지만	-10.5104
룸	-10.5104
▁두려워	-10.5104
▁법무부	-10.5104
▁촉발	-10.5104
▁활약	-10.5104
핵	-10.5104
▁둘러싸	-10.5105
뿐만아니라	-10.5106
▁성직자	-10.5106
▁라이벌	-10.5106
멜	-10.5106
▁언어	-10.5106
▁대륙	-10.5108
▁열어	-10.5108
▁자치정부	-10.5109
▁필립	-10.5109
▁아프가니스탄에서	-10.5111
▁급증	-10.5111
▁리드	-10.5113
▁환호	-10.5114
▁축소	-10.5116
▁맞추	-10.5117
▁2007.1	-10.5119
▁체중	-10.5119
▁왕실	-10.5121
▁짓	-10.5123
▁약화	-10.5124
▁성격	-10.513
▁다우지수	-10.513
▁정전	-10.5135
▁불편	-10.5139
▁꼭	-10.5142
▁자랑	-10.5142
▁직전	-10.5151
▁엘리	-10.5152
연방	-10.5158
mm	-10.5164
▁포기하	-10.5166
▁벌였	-10.5168
▁연금	-10.5169
▁상호	-10.5169
▁공모	-10.5176
베르	-10.5178
페이스	-10.5178
▁자신에게	-10.5184
▁맥주	-10.5187
▁일어났	-10.5188
▁보호하기	-10.5201
▁연안	-10.5208
ca	-10.5209
▁120	-10.5211
▁감지	-10.522
▁백악관에서	-10.5225
▁독도	-10.5231
▁코트	-10.5234
▁생각했다	-10.5243
즉각적인	-10.5243
▁시기에	-10.5246
▁진술했다	-10.5249
▁개시	-10.5257
옹	-10.5263
Q	-10.5263
▁가택연금	-10.5263
▁샤라포바	-10.5263
넨	-10.5263
▁패트릭	-10.5263
퀸	-10.5263
▁겨냥	-10.5263
▁남서부	-10.5263
▁받아들일	-10.5263
▁리차드	-10.5263
▁촉진	-10.5263
▁월스트리트	-10.5263
▁천주교	-10.5263
▁거듭	-10.5264
▁수석대표	-10.5264
▁봉송	-10.5264
▁붙잡	-10.5265
여성	-10.5266
▁리치	-10.5275
▁즉각	-10.5279
▁구축	-10.528
▁낸시	-10.5282
▁벌여	-10.5283
▁몰려	-10.5283
▁월드	-10.5287
▁라이트	-10.529
▁가해	-10.5294
▁걸리	-10.5296
▁들여	-10.5296
▁홍	-10.5301
매우	-10.5304
됐으나	-10.5315
스럽게	-10.5316
▁주장하며	-10.5322
act	-10.5334
후보	-10.5338
▁날아	-10.534
▁조약	-10.5341
위성	-10.5343
투표	-10.5344
▁전환	-10.5354
우주	-10.5356
▁만들고	-10.5361
▁대상이	-10.5363
▁여행객	-10.5363
▁대치	-10.5367
▁사람에게	-10.5372
▁성공적	-10.5382
▁다르	-10.5385
▁농장	-10.5388
▁나왔	-10.5389
▁인원	-10.5389
▁지내	-10.5402
▁잡고	-10.5404
▁포함된	-10.5404
▁주었다	-10.5407
삭	-10.5424
겁	-10.5424
▁쌍둥이	-10.5424
▁오사마빈라덴	-10.5424
▁알코올	-10.5424
▁스파이	-10.5425
▁탄핵	-10.5425
▁다섯	-10.5425
▁상하이	-10.5426
▁동쪽	-10.5426
▁영웅	-10.5426
▁케빈	-10.5426
▁타임스	-10.543
▁역사적	-10.5434
▁애도	-10.5436
풀	-10.5437
동맹	-10.5437
▁정착	-10.5441
▁폭파	-10.5444
▁일제	-10.5446
▁소득	-10.5446
▁것인가	-10.545
▁초반	-10.5454
▁감염된	-10.5455
▁스타일	-10.5458
헤드	-10.5458
▁나토군	-10.5463
가족	-10.5466
▁55	-10.5468
▁Mo	-10.5468
▁카터	-10.5468
▁맡은	-10.5474
▁비난하고	-10.5476
▁하락세	-10.5489
▁자제	-10.5489
▁레드	-10.5491
▁국민들에게	-10.5495
▁던지	-10.5505
▁떨어졌	-10.5509
돼야	-10.552
티아	-10.5525
▁입법	-10.5537
▁들어오	-10.5539
▁상태로	-10.5544
▁평가했다	-10.5545
▁확실한	-10.5553
▁자사	-10.5562
▁폭스	-10.557
버렸다	-10.5586
컷	-10.5587
빼	-10.5588
▁디지털	-10.5588
▁마이애미	-10.5588
▁미시시피	-10.5588
▁애리조나	-10.5588
▁유튜브	-10.5588
▁천연가스	-10.5588
▁캄보디아	-10.5588
왓	-10.5588
턱	-10.5588
▁사찰단	-10.5588
▁비타민	-10.5588
▁침몰	-10.5588
▁중앙일보	-10.5588
▁오딩가	-10.5588
▁로이터	-10.5588
▁졸업	-10.5589
▁지하철	-10.5589
▁새벽	-10.559
▁날짜	-10.559
▁산사태	-10.5593
▁소련	-10.5593
▁급격	-10.5594
▁채널	-10.5596
▁보지	-10.5597
▁취임식	-10.5599
▁종합	-10.5601
▁엔진	-10.5602
▁게재	-10.5605
▁연예	-10.5605
▁분류	-10.5606
자동차	-10.5607
▁감금	-10.5608
▁전세계적으로	-10.5609
▁완전한	-10.561
▁뛰	-10.5611
▁연구팀	-10.5612
▁추모	-10.5618
▁공개된	-10.5619
▁쌀	-10.5623
▁미칠	-10.5633
나무	-10.5638
부르크	-10.5639
▁향상	-10.5642
lu	-10.5644
▁와인	-10.5651
▁장면이	-10.5652
▁전부터	-10.5653
▁상승세	-10.5655
▁도착한	-10.5657
▁가리	-10.5669
▁경력	-10.567
재판소	-10.5672
▁이론	-10.5673
PS	-10.5678
제품	-10.5681
때문에	-10.5683
▁증상	-10.5688
▁원화	-10.5692
▁경호	-10.5706
라이트	-10.5708
▁딕	-10.5709
장소	-10.5719
▁합의했다고	-10.5726
▁정신적	-10.5732
48	-10.574
▁서쪽	-10.5741
쪽으로	-10.5753
낭	-10.5754
▁결선투표	-10.5755
▁뿌리	-10.5755
▁쓰촨성	-10.5755
▁좋다	-10.5755
놈	-10.5755
쌍	-10.5755
▁비핵화	-10.5755
▁이뤄졌다	-10.5755
▁뉴저지	-10.5755
▁가즈니	-10.5755
▁재무부	-10.5755
▁호랑이	-10.5755
▁흥미	-10.5755
▁over	-10.5755
▁근육	-10.5757
▁걸린	-10.5758
▁전원	-10.5758
▁부총리	-10.5761
▁받으며	-10.5762
▁돌입	-10.5764
▁다윈	-10.5765
▁오늘날	-10.577
▁끝내	-10.5771
해야만	-10.5771
벽	-10.5773
컨	-10.5775
▁소집	-10.5777
▁부채	-10.5778
쥐	-10.5779
년만에	-10.5782
▁가상	-10.5786
▁포경	-10.5789
▁조류	-10.5794
▁공개적으로	-10.5794
▁호소	-10.5796
▁대립	-10.58
▁좁	-10.5801
사진	-10.5804
▁가동	-10.5805
▁2-1	-10.5809
pr	-10.5809
▁프레스	-10.5816
정치	-10.582
▁방식으로	-10.582
▁마무	-10.5821
▁기다리	-10.5831
▁형사	-10.5847
▁Co	-10.5851
▁무리	-10.5852
▁변호인	-10.5866
당신	-10.5882
략	-10.5889
▁들어있	-10.5889
▁후보들	-10.5893
맹	-10.5895
▁만들기	-10.5901
▁최저	-10.5906
첼	-10.5908
업체들	-10.5911
▁나오지	-10.5913
▁전복	-10.5915
얀	-10.5919
쁘	-10.5924
▁골키퍼	-10.5924
▁늦게	-10.5924
▁브라이언	-10.5924
▁블라고예비치	-10.5924
▁알렉산더	-10.5924
▁인플레이션	-10.5924
▁토네이도	-10.5924
▁필라델피아	-10.5924
▁에베레스트	-10.5924
▁키바키	-10.5924
줘	-10.5924
▁원숭이	-10.5924
▁리히터	-10.5924
▁2-0	-10.5924
▁스캔들	-10.5924
▁오히려	-10.5924
▁갖춘	-10.5925
▁합법적	-10.5925
.8%	-10.5926
▁탄압	-10.5927
CC	-10.5929
▁국가안보	-10.593
카드	-10.5934
▁무엇보다	-10.5935
▁보스턴	-10.5936
▁만남	-10.5937
▁*	-10.5938
비용	-10.5938
▁물품	-10.5957
▁구조대원들	-10.5961
물질	-10.5962
▁반영	-10.5962
ti	-10.5962
▁들어간	-10.5962
▁이에따라	-10.5963
▁이라크군	-10.5965
▁공사	-10.5969
감독	-10.5974
▁겸	-10.5983
▁참여한	-10.5984
▁소문	-10.5987
▁표명했다	-10.5997
▁일간지	-10.5998
▁그대로	-10.6008
써	-10.6008
▁노선	-10.6019
여행	-10.6028
▁것임	-10.6049
▁간부	-10.6067
▁주연	-10.6067
▁소위	-10.6071
▁상상	-10.6087
▁정치인들	-10.609
즘	-10.6095
잭	-10.6096
▁마이크로소프트	-10.6096
▁이슬라마바드	-10.6097
슐	-10.6097
▁남자친구	-10.6097
▁은신처	-10.6097
▁아름다	-10.6097
▁통일부	-10.6097
▁블루	-10.6097
▁화이트	-10.6097
▁보여준다	-10.6098
port	-10.6098
▁있었으나	-10.6101
▁순례	-10.6101
▁징역형	-10.6102
▁라이언	-10.6102
▁가족과	-10.6103
▁벗어	-10.6104
버리	-10.6108
▁다음날	-10.6111
▁종결	-10.6112
▁로저	-10.6117
▁클리	-10.6117
▁지휘관	-10.6117
▁결심	-10.6118
▁젊은이들	-10.6118
▁체코	-10.6119
▁키스	-10.6119
리언	-10.6124
▁기소됐다	-10.6126
▁초청	-10.6126
▁기각	-10.6131
▁동기	-10.6132
털	-10.6132
▁중대한	-10.6134
▁소형	-10.6134
언론	-10.6149
▁밥	-10.615
▁알카에다와	-10.6151
▁투르	-10.6164
ial	-10.6164
▁조사에따르면	-10.6169
수술	-10.6172
▁공대	-10.6176
▁게시	-10.6176
▁호수	-10.6176
▁매력	-10.618
▁시체	-10.6192
▁홍수로	-10.6198
▁해병	-10.6202
▁정식	-10.6204
▁부상으로	-10.621
▁국무	-10.6249
2006.1	-10.6259
랍	-10.6261
▁가게	-10.6263
▁브리	-10.6265
속도로	-10.627
펀	-10.6271
븐	-10.6272
▁국제공항	-10.6272
▁후진타오	-10.6272
숲	-10.6272
▁1996	-10.6272
▁법무장관	-10.6272
▁선관위	-10.6272
▁펀드	-10.6272
▁불가피	-10.6273
▁원칙	-10.6275
▁성장률	-10.6276
▁소탕	-10.6279
▁황금	-10.6282
▁출생	-10.6282
▁남극	-10.6283
▁사육	-10.6283
우디	-10.6286
▁가담	-10.6287
▁보고서에따르면	-10.6291
▁브랜드	-10.6293
▁배후	-10.6293
▁제공할	-10.6294
▁음주	-10.63
시킨다	-10.6305
▁물러나	-10.6307
▁진단	-10.6309
▁피고인	-10.631
▁일으켰다	-10.6311
▁화재로	-10.6315
시스템	-10.6315
▁기온	-10.6316
▁비행사	-10.6319
▁근로자들	-10.6321
▁주최측	-10.6337
▁쓸	-10.6338
▁불어	-10.6341
▁화해	-10.6342
▁날개	-10.6351
▁일어났다	-10.6356
ous	-10.6356
▁카라	-10.636
▁부산	-10.6363
▁받는다	-10.6364
▁확인됐다	-10.6404
역사적인	-10.6407
▁양국간	-10.6411
▁지속적	-10.6427
▁화상	-10.6439
▁직장	-10.6441
▁뭄바이	-10.6451
▁탱크	-10.6451
얄	-10.6451
톱	-10.6451
▁섭취	-10.6451
▁줄리아니	-10.6451
▁감바리	-10.6451
▁택시	-10.6451
▁교통사고	-10.6452
▁구멍	-10.6453
▁캐롤	-10.6453
겠습니다	-10.6453
▁플라	-10.6455
▁소규모	-10.6455
▁1993	-10.6455
▁인권단체	-10.6457
▁라덴	-10.6457
▁벨기에	-10.6459
렸으며	-10.6459
▁할머니	-10.646
▁막대	-10.6461
▁폭설	-10.6461
▁사생활	-10.6461
▁영양	-10.6465
▁보존	-10.6466
▁여론조사에서	-10.6468
많은	-10.6468
▁GM	-10.6468
▁신문사	-10.647
▁관측	-10.6473
▁기대한다	-10.6485
▁발생하고	-10.6488
▁일치	-10.6496
2007.1	-10.6497
▁악어	-10.6502
▁가방	-10.6515
▁기원	-10.6522
▁노스	-10.6524
fi	-10.653
▁제공한	-10.6537
생산	-10.6539
▁수퍼	-10.6545
▁총상	-10.6545
▁급속	-10.6548
▁살아있	-10.6556
▁착수	-10.6563
▁자택	-10.6566
▁자신과	-10.6568
사업	-10.6584
▁피부	-10.6586
▁참석할	-10.6602
▁근처에서	-10.6602
▁1%	-10.6605
켜	-10.6607
▁국장	-10.6615
▁산악	-10.662
▁초안	-10.6626
ish	-10.663
▁China	-10.6632
▁무슬림	-10.6632
▁밴드	-10.6632
▁기쁘다	-10.6632
▁재검토	-10.6632
▁횡령	-10.6632
▁테일러	-10.6632
▁다시한번	-10.6633
▁쓰레기	-10.6633
▁플래	-10.6633
▁침공	-10.6633
▁가벼	-10.6633
조건	-10.6634
민감한	-10.6635
▁예멘	-10.6636
▁괴한	-10.6636
▁지붕	-10.6636
▁1991	-10.6637
▁진행자	-10.6638
▁감옥	-10.6638
▁비난하는	-10.6639
▁his	-10.6639
▁농업	-10.6641
▁아이폰	-10.6641
폴리스	-10.6643
▁포럼	-10.6643
▁결함	-10.6644
▁에릭	-10.665
▁관중	-10.6654
▁판정	-10.6658
민들	-10.666
▁적발	-10.666
▁방송사	-10.6668
▁종식	-10.6672
▁반복	-10.6673
▁개정안	-10.6676
▁곳이다	-10.6676
▁선포했다	-10.6678
▁마친	-10.6678
긍정적인	-10.6681
▁재임	-10.6684
▁비교적	-10.6686
▁북쪽으로	-10.6687
▁늘어나	-10.6706
▁사용하지	-10.6707
▁수립	-10.6709
▁생기	-10.6714
▁국적	-10.6716
per	-10.6728
▁부실	-10.6736
▁미국인들이	-10.6739
구조	-10.6748
▁모아	-10.675
▁총회	-10.6751
▁극장	-10.6752
▁근거로	-10.6756
되거나	-10.6763
▁세계적으로	-10.6763
▁대피했다	-10.6765
▁구체적	-10.6771
신문	-10.6775
통제	-10.6784
▁문제들	-10.6785
만개	-10.6798
▁재판관	-10.6809
▁사용했다	-10.6816
▁DVD	-10.6818
▁사우스캐롤라이나	-10.6818
▁안전보장이사회	-10.6818
▁협약	-10.6818
슛	-10.6818
툼	-10.6818
팝	-10.6818
헐	-10.6818
▁광범위	-10.6818
▁메르켈	-10.6818
▁파나마	-10.6818
▁원주민	-10.6818
▁스트레스	-10.6818
▁미디어	-10.6818
▁거짓말	-10.6819
▁세인트	-10.6819
▁발휘	-10.682
▁호흡	-10.6821
▁수상한	-10.6821
▁억제	-10.6823
part	-10.6823
ber	-10.6826
▁싸우	-10.6829
▁이용하는	-10.6831
▁차별	-10.6832
▁중이었다	-10.6833
▁금연	-10.6835
▁신규	-10.6835
▁정찰	-10.6836
▁이륙	-10.6848
▁반박	-10.6852
ph	-10.6853
▁제목	-10.6859
었는지	-10.686
▁관계당국	-10.6866
▁미치는	-10.6871
ian	-10.6872
등급	-10.6876
▁자행	-10.6884
▁제출했다	-10.6886
교육	-10.6886
워드	-10.6887
커스	-10.6892
▁정상화	-10.6895
폭력	-10.6909
공사	-10.6913
▁혼자	-10.6915
▁생각하지	-10.6915
▁많아	-10.6915
▁성당	-10.6918
잘못된	-10.692
▁61	-10.6924
▁차지하고	-10.6926
코프	-10.6938
▁계속될	-10.6941
Mar	-10.6946
▁지점에서	-10.6957
▁적절	-10.6965
단계	-10.6969
▁수십명	-10.6977
▁실업	-10.6983
▁신사	-10.6998
▁연구원들	-10.7
▁사용해	-10.7005
왈	-10.7006
▁nuclear	-10.7006
▁검문소	-10.7006
▁다큐멘터리	-10.7006
▁불러일으	-10.7006
▁스타디움에서	-10.7006
▁식료품	-10.7006
▁왼쪽	-10.7006
▁쿠웨이트	-10.7006
▁전당대회	-10.7006
▁과반수	-10.7006
▁일어날	-10.7006
▁데이비스	-10.7006
▁옹호	-10.7006
▁균형	-10.7006
▁공산주의	-10.7006
▁위안부	-10.7007
▁롬니	-10.7007
▁승려들	-10.7007
▁난민촌	-10.7007
day	-10.7009
▁귀환	-10.701
▁1995	-10.7013
▁탑승객	-10.7014
▁완료	-10.7014
380	-10.7015
▁표준	-10.7017
▁출두	-10.7018
분만에	-10.7021
▁화려	-10.7024
▁인민	-10.7028
▁동생	-10.7034
▁서안	-10.7034
▁못했	-10.7035
▁고장	-10.7037
▁제정	-10.7042
▁조언	-10.7042
▁모래	-10.705
▁모임	-10.7055
킨스	-10.7058
해지고	-10.7059
않	-10.7061
▁있어야	-10.7062
굴	-10.7071
연구원	-10.7073
돈	-10.7077
▁부상당	-10.7082
▁단체들	-10.709
▁주장한다	-10.7101
▁조용	-10.7102
▁선원	-10.7123
▁보냈	-10.7126
▁실시할	-10.7144
▁달린	-10.7149
▁달러화	-10.7149
▁AT	-10.7155
않게	-10.7156
▁하미	-10.7158
▁경관	-10.7163
겠	-10.7165
동물	-10.7166
▁최고치	-10.7176
▁국제원자력기구	-10.7198
▁않았던	-10.7199
▁어렵다	-10.7199
▁에콰도르	-10.7199
▁이산화탄소	-10.7199
▁캐릭터	-10.7199
▁매사추세츠	-10.7199
▁받아들여	-10.7199
▁없게	-10.7199
▁펠로시	-10.7199
▁확장	-10.7199
▁매니저	-10.7199
▁코끼리	-10.7199
▁나타난	-10.7199
▁조지아주	-10.7199
▁퇴임	-10.7199
▁득표율	-10.7199
▁범행	-10.7201
직원	-10.7201
▁낮추	-10.7202
▁침대	-10.7203
▁친척	-10.7204
▁급락	-10.7205
▁쉽지	-10.7205
▁촉구하	-10.7206
▁떠난	-10.7207
▁레이건	-10.7208
▁당황	-10.7209
니까	-10.7211
▁복역	-10.7211
중앙	-10.7213
▁일련	-10.7213
발전	-10.7213
예비선거	-10.7217
ary	-10.7217
범들	-10.7219
▁당초	-10.7223
▁신조	-10.7226
09	-10.7229
▁케이트	-10.7231
▁운영하고	-10.7232
▁상영	-10.7235
ound	-10.7245
▁무게	-10.7246
▁매체	-10.7248
▁인력	-10.725
ese	-10.7252
아시아	-10.7254
▁모리	-10.7258
▁뉴욕시	-10.726
91	-10.7263
▁조건으로	-10.7263
▁계속되는	-10.7266
▁생산량	-10.7266
▁요금	-10.7268
▁군사적	-10.7275
팬	-10.7275
IAEA	-10.7276
아일랜드	-10.7277
뇌	-10.7283
▁텍사스주	-10.7283
▁다르다	-10.7284
▁포함돼	-10.7288
▁창문	-10.729
그녀	-10.7294
▁아난	-10.7302
▁피해자들	-10.7303
▁운전사	-10.731
ite	-10.7315
▁공개됐다	-10.7328
▁발견되었다	-10.7368
▁유대	-10.7369
▁정원	-10.7373
▁확신한다	-10.7376
▁무장대원	-10.7386
엇	-10.739
템	-10.7395
▁from	-10.7395
▁샌디에이고	-10.7395
▁일으킬	-10.7395
▁마라톤	-10.7395
▁외무성	-10.7395
▁여겨지	-10.7395
▁이뤄진	-10.7395
▁어깨	-10.7395
▁드러냈다	-10.7396
▁용납	-10.7397
▁상륙	-10.7398
▁테니스	-10.7399
▁늘리	-10.74
▁생방송	-10.7401
▁끝날	-10.7401
▁부활	-10.7402
▁창출	-10.7404
Al	-10.7406
▁탄생	-10.7407
▁1960	-10.7408
▁추구하	-10.7408
▁분석가들은	-10.7409
▁방출	-10.7415
▁분량	-10.7415
▁거부권	-10.7415
▁음성	-10.7419
▁최저치	-10.7427
▁밝혀진	-10.7427
▁주위	-10.7432
▁중단했다	-10.7432
▁증세	-10.7437
▁발포	-10.7438
▁알렸다	-10.744
▁조명	-10.7443
▁모건	-10.7445
▁오하이오주	-10.7448
▁거절했다	-10.7449
93	-10.7449
▁보게	-10.745
▁비난하며	-10.7451
▁진보	-10.7455
▁상태이다	-10.7456
▁마리아	-10.746
▁무어	-10.7469
▁예정이었다	-10.747
▁월가	-10.7471
▁회원국들	-10.7474
▁전달했다	-10.7476
▁자택에서	-10.7478
NASA	-10.7481
넣	-10.7487
▁운영하	-10.7495
앞으로	-10.7496
ag	-10.75
▁투명	-10.7508
▁기여	-10.7511
min	-10.7543
▁세부	-10.7561
Com	-10.7577
뢰	-10.7584
▁느낄	-10.7595
▁유혈사태	-10.7595
▁줄기세포	-10.7595
▁프리미어리그	-10.7595
▁휩쓸	-10.7595
쿨	-10.7595
▁앤드류	-10.7595
▁자카르타	-10.7595
콰	-10.7595
▁샘플	-10.7595
▁new	-10.7595
▁돌고래	-10.7595
▁홈페이지	-10.7595
▁실업률	-10.7595
▁로딕	-10.7596
▁중동평화	-10.7596
▁탐험	-10.7596
▁특징	-10.7597
▁계좌	-10.7598
▁밝혔지만	-10.7598
▁MBC	-10.7598
▁축출	-10.7598
▁빌딩	-10.7598
▁동일한	-10.7599
버린	-10.7599
▁다국적군	-10.7603
▁표결	-10.7609
▁건너	-10.761
ust	-10.7612
▁회계	-10.7615
▁처방	-10.7615
▁측면	-10.7618
▁서양	-10.7627
에이커	-10.7628
▁선임	-10.7632
▁원래	-10.7635
널리	-10.7638
▁부위	-10.7638
▁치러지	-10.764
▁발행	-10.7651
▁해당하는	-10.7652
▁식사	-10.7663
▁2500	-10.7671
힘	-10.7691
1000	-10.7693
▁사용된	-10.7696
유럽	-10.7698
진압	-10.7709
▁소유하고	-10.773
bu	-10.7731
대책	-10.7735
▁보조	-10.774
▁뉴욕주	-10.7754
▁실종자	-10.7771
▁외치	-10.7792
봐	-10.7792
▁항공우주국	-10.7799
햇	-10.7799
▁HIV	-10.7799
▁멤버	-10.7799
▁않았으나	-10.7799
▁애완견	-10.7799
▁윔블던	-10.7799
▁프랭크	-10.7799
넌	-10.7799
쏘	-10.7799
▁격렬한	-10.7799
▁노르웨이	-10.7799
▁힘입어	-10.7799
▁마흐디	-10.7799
▁영화배우	-10.7799
▁예를들어	-10.7799
▁좌절	-10.7799
▁득점	-10.7799
▁검증	-10.7799
▁정거장	-10.7799
▁잇따	-10.7799
▁브리핑	-10.7799
▁암컷	-10.78
▁not	-10.7801
▁떠올	-10.7802
내용	-10.7802
▁밝혔으며	-10.7802
▁손님	-10.7802
▁리처드슨	-10.7803
▁음료	-10.7804
▁동의했다	-10.7805
▁녹음	-10.7806
▁화합	-10.7806
▁내려졌다	-10.7807
▁오마르	-10.7807
▁쿠퍼	-10.7809
▁용기	-10.7809
▁포착	-10.781
▁외환	-10.7812
▁통증	-10.7814
▁열렸다	-10.7817
▁해상	-10.7821
▁종료	-10.7821
▁발표됐다	-10.7826
▁개편	-10.7827
▁매달	-10.7831
▁키우	-10.7834
▁접전	-10.7837
Ma	-10.7854
▁고무	-10.7857
▁1500	-10.7869
▁사설	-10.7877
▁추세	-10.7883
▁재직	-10.7885
▁보이며	-10.7897
▁판다	-10.79
▁실시했다	-10.7901
프랑스	-10.7903
방위	-10.7904
윤	-10.7904
▁화장	-10.7928
때까지	-10.793
▁부유	-10.793
연구	-10.795
▁긍정적	-10.7952
▁ex	-10.7977
▁외국인들	-10.798
▁움직	-10.798
▁포장	-10.7987
하우스	-10.7988
버트	-10.7994
NS	-10.7999
▁막아	-10.8001
▁국기	-10.8007
덩	-10.8007
붐	-10.8007
▁government	-10.8007
▁세웠다	-10.8007
▁않았고	-10.8007
▁없습니다	-10.8007
▁피라미드	-10.8007
팩	-10.8007
▁라파엘	-10.8007
▁비틀즈	-10.8007
▁자선단체	-10.8007
▁마돈나	-10.8007
▁침략	-10.8007
드립니다	-10.8007
▁1992	-10.8007
▁배터리	-10.8007
▁탈북자	-10.8007
▁객실	-10.8007
▁서식지	-10.8007
▁데이빗	-10.8007
▁여섯	-10.8008
▁졸리	-10.8009
▁빠지	-10.8012
▁금액	-10.8013
▁탈락	-10.8014
▁테러조직	-10.8015
분께	-10.8017
▁않는다면	-10.8018
▁산책	-10.8019
▁아마디	-10.8022
▁인형	-10.8028
▁전국적으로	-10.8029
인들에게	-10.8032
▁통행	-10.8033
포르	-10.8034
▁상당히	-10.8036
▁본토	-10.8041
▁고급	-10.8041
▁30%	-10.8042
▁운명	-10.8049
▁FA	-10.8049
89	-10.8049
▁남용	-10.8061
▁강행	-10.8061
▁피살	-10.8063
▁보급	-10.8063
▁방향으로	-10.8064
▁청사	-10.8066
▁잡아	-10.8074
▁자동	-10.8085
▁지분	-10.8089
▁부모들	-10.809
프레드	-10.8099
▁밝혔	-10.81
▁불구	-10.8102
▁잡스	-10.8116
▁플로리다주	-10.8118
▁유산	-10.8119
탈레반	-10.812
음악	-10.8125
혔	-10.8137
▁잃었	-10.8137
2005.1	-10.8148
▁의사들	-10.819
▁배심원	-10.8192
▁거부하	-10.8204
▁강세	-10.8215
졸	-10.8217
훔	-10.822
OPEC	-10.822
▁경기부양책	-10.822
▁관타나모	-10.822
▁오토바이	-10.822
▁우주왕복선	-10.822
▁울포위츠	-10.822
▁파바로티	-10.822
▁퍼거슨	-10.822
▁펜실베니아	-10.822
▁플라스틱	-10.822
社	-10.822
툴	-10.822
펄	-10.822
▁자유무역협정	-10.822
▁준결승	-10.822
▁롤링	-10.822
▁헌법재판소	-10.8221
▁벌써	-10.8221
▁승무원들	-10.8222
▁낙태	-10.8223
▁저희	-10.8223
▁의뢰	-10.8226
▁오른쪽	-10.8227
▁드러내	-10.8228
▁넘겨	-10.823
▁점검	-10.823
▁풀려	-10.8233
▁상대방	-10.8234
▁백신	-10.8236
▁NK	-10.8237
▁집권당	-10.8237
▁놓여	-10.8244
▁군함	-10.8248
▁매출	-10.825
▁고속	-10.8253
▁멀리	-10.8253
▁군복	-10.8254
▁160	-10.8263
▁표면	-10.8267
▁요구하며	-10.827
▁운동가들	-10.8273
▁연계	-10.8275
▁존경	-10.8275
▁지지한다	-10.8279
▁포함됐다	-10.8283
▁실린	-10.8284
내내	-10.8285
▁도심	-10.8293
몬드	-10.8306
▁이틀간	-10.8309
업계	-10.831
▁밀어	-10.831
▁140	-10.8314
▁모금	-10.8316
▁중요성	-10.8322
▁내려진	-10.8324
▁다음주	-10.8332
해달라	-10.8342
금융	-10.8344
서비스	-10.8344
▁로브	-10.835
줬	-10.8368
▁갈라	-10.8369
▁제시했다	-10.8381
▁사망했	-10.8404
▁기소된	-10.8411
칙	-10.8434
닷	-10.8437
▁1,000	-10.8437
▁Obama	-10.8437
▁루아얄	-10.8437
▁뮤지컬	-10.8437
딴	-10.8437
킴	-10.8437
톨	-10.8437
펴	-10.8437
▁허커비	-10.8437
랩	-10.8437
▁경기침체	-10.8437
▁아테네	-10.8437
▁테네시	-10.8437
▁게릴라	-10.8437
▁옐친	-10.8437
▁징후	-10.8437
▁포르노	-10.8437
▁시라크	-10.8437
▁불가리아	-10.8438
▁공룡	-10.8439
▁벽돌	-10.8439
▁본격적	-10.844
▁살아남	-10.844
▁데일리	-10.8441
▁탄광	-10.8442
베르토	-10.8447
▁있었습니다	-10.8448
▁범위	-10.845
▁함유	-10.845
American	-10.8456
▁형식	-10.8457
▁국방성	-10.8457
▁히트	-10.8459
▁자신감	-10.8466
▁승부	-10.8469
▁점거	-10.847
▁벌어졌다	-10.8475
▁한국은행	-10.8478
▁조절	-10.848
▁얼마전	-10.8481
▁접수	-10.8488
▁좋아하는	-10.8488
▁공판	-10.8489
▁통보	-10.8494
▁호소했다	-10.8495
▁발표했습니다	-10.8495
▁소동	-10.8499
▁실무	-10.8503
▁연간	-10.8506
▁희망한다	-10.8508
▁한국인들	-10.8509
▁정기적	-10.8527
▁동맹국	-10.8533
▁동성	-10.8548
늘	-10.8552
기때문에	-10.8553
▁사체	-10.8556
메르	-10.856
아프간	-10.8569
어떤	-10.857
사령관	-10.8575
form	-10.8575
2000	-10.8579
▁감소했다	-10.8612
사무소	-10.8614
기위해	-10.8629
▁내렸	-10.8642
na	-10.8646
덤	-10.8655
▁덧붙	-10.8657
▁금메달	-10.8659
▁디자이너	-10.8659
▁루이지애나	-10.8659
▁아닙니다	-10.8659
▁앤더슨	-10.8659
▁지지선언	-10.8659
▁카트리나	-10.8659
▁멈추	-10.8659
▁알렉스	-10.8659
▁보이콧	-10.866
▁흘러	-10.866
▁징계	-10.866
▁이자율	-10.866
▁잠재적	-10.8662
▁흔적	-10.8663
▁개막	-10.8664
강전에서	-10.8664
▁기상청	-10.8664
▁디스크	-10.8665
▁떠날	-10.8666
▁양곤	-10.8666
쳤으며	-10.8667
▁핵개발	-10.8667
▁래리	-10.8669
▁통과시켰다	-10.867
▁경향	-10.8672
▁오스카	-10.8675
▁미첼	-10.868
▁않으며	-10.868
▁러드	-10.868
▁플레이어	-10.8681
▁상담	-10.8681
▁사이클	-10.8683
▁인터	-10.8684
▁cont	-10.8691
▁선고받	-10.8692
▁포함하여	-10.8695
▁서류	-10.8698
▁준수	-10.8698
▁장교	-10.8702
▁발발	-10.8703
▁테러리스트들	-10.8708
▁도청	-10.8717
▁참석하지	-10.8718
▁탄소	-10.8738
▁대법원장	-10.8745
way	-10.8747
업자들	-10.8754
AM	-10.8757
▁계기	-10.8775
▁정계	-10.8782
▁레바논군	-10.8785
▁살해했다	-10.8795
▁정보부	-10.8802
▁우즈	-10.8817
BO	-10.8841
▁본다	-10.8848
▁dis	-10.8875
뒀	-10.8887
World	-10.8887
▁베네딕	-10.8887
▁아마디네자드	-10.8887
▁에티오피아	-10.8887
▁오클라호마	-10.8887
▁이브라힘	-10.8887
▁최첨단	-10.8887
▁평화유지군	-10.8887
▁히틀러	-10.8887
뚫	-10.8887
셨	-10.8887
▁로드리게스	-10.8887
▁빼앗	-10.8887
▁심장마비	-10.8887
▁의약품	-10.8887
▁따뜻	-10.8887
▁압바스	-10.8887
PGA	-10.8887
▁중남미	-10.8887
▁2008.10	-10.8887
▁인터폴	-10.8887
▁스크린	-10.8887
▁품목	-10.8887
▁이루어진	-10.8889
▁농민들	-10.8889
▁터널	-10.889
▁NBA	-10.889
▁1989	-10.8892
▁술집	-10.8892
▁거짓	-10.8892
▁가짜	-10.8893
▁세탁	-10.8896
▁새롭	-10.8896
▁채취	-10.8898
▁들어갈	-10.8898
▁연례	-10.8899
▁부탁	-10.89
▁플로	-10.8901
▁구름	-10.8905
▁계산	-10.8905
old	-10.8908
▁테러단체	-10.891
▁암호	-10.8912
▁조항	-10.8914
▁뿐이다	-10.8915
▁풍부	-10.8917
▁언급하며	-10.8926
▁발급	-10.8926
▁단행	-10.8929
▁문구	-10.8934
▁변호	-10.8943
▁휴대	-10.8945
▁대대적	-10.8946
~2	-10.8954
▁선거법	-10.8956
▁회수	-10.8964
▁스토	-10.8969
▁임대	-10.8973
▁보건부	-10.8986
▁해체	-10.8991
▁경비원	-10.8992
죽	-10.9033
공화국	-10.9039
못	-10.9041
푸르	-10.9105
융	-10.9115
뷰	-10.9119
2,000	-10.9119
5,000	-10.9119
▁고이즈미	-10.9119
▁뉴올리언스	-10.9119
▁느낌	-10.9119
▁불확실	-10.9119
▁저질렀다	-10.9119
▁조승희	-10.9119
샬	-10.9119
옳	-10.9119
칩	-10.9119
▁망원경	-10.9119
▁성추행	-10.9119
▁우울증	-10.9119
▁again	-10.9119
▁노트북	-10.9119
▁두려움	-10.9119
▁쇠고기	-10.9119
▁시나리오	-10.9119
▁허드슨	-10.9119
▁기숙사	-10.9119
▁무승부	-10.9119
▁수류탄	-10.9119
▁빠졌다	-10.9119
▁소행성	-10.9119
▁활발	-10.9119
▁무너지	-10.912
▁당국자들	-10.912
▁저항세력	-10.912
▁당부했다	-10.9121
▁남아프리카	-10.9121
▁맥캔	-10.9121
▁교섭	-10.9123
▁구호단체	-10.9123
▁무덤	-10.9124
▁사라졌다	-10.9126
▁받아왔다	-10.9126
▁박탈	-10.9127
▁동성애	-10.9131
▁아니지만	-10.9131
▁머무	-10.9133
▁체류	-10.9135
▁타밀	-10.9136
▁때문이라	-10.9137
▁붙여	-10.9137
▁고위급	-10.9137
▁모술	-10.914
▁바탕	-10.914
▁시인했다	-10.9142
연패	-10.9148
▁경비대	-10.9149
▁낮아	-10.915
▁전반적인	-10.9153
같	-10.9156
천명	-10.9157
▁밀려	-10.9157
▁예약	-10.9162
▁열심	-10.9165
▁구류	-10.9168
▁신도들	-10.9169
▁위하여	-10.917
▁경사	-10.9173
▁경쟁력	-10.9179
회전	-10.9179
▁가중	-10.9182
US	-10.9183
▁모터	-10.9185
▁유통	-10.9195
▁착수했다	-10.921
▁여행객들	-10.9219
▁총장	-10.9241
호프	-10.9244
▁신장	-10.9244
▁실종됐다	-10.9245
▁전해지	-10.9248
▁부검	-10.9268
탐	-10.9283
최근	-10.9285
스럽다	-10.9309
55	-10.9323
▁부족하다	-10.9335
▁달한다	-10.9355
갱	-10.9357
깃	-10.9357
텍	-10.9357
▁talks	-10.9357
▁비서실장	-10.9357
▁빅토리아	-10.9357
▁위스콘신	-10.9357
▁유죄판결	-10.9357
▁출구조사	-10.9357
▁펼친	-10.9357
▁플루토늄	-10.9357
▁확률	-10.9357
박근혜	-10.9357
찌	-10.9357
▁국립공원	-10.9357
▁뉴델리	-10.9357
▁알바니아	-10.9357
▁자르다리	-10.9357
▁도요타	-10.9357
▁1987	-10.9357
▁대서양	-10.9357
▁삭감	-10.9357
▁di	-10.9359
▁숨졌으며	-10.936
▁남학생	-10.9361
▁중앙은행	-10.9361
▁서장	-10.9362
▁강진이	-10.9363
▁부사장	-10.9364
카를로스	-10.9366
됐는지	-10.9366
▁증강	-10.9367
▁델타	-10.9367
▁물고기	-10.9369
▁하원의장	-10.9371
▁압도적	-10.9373
▁맡았다	-10.9373
▁왕세자비	-10.9373
▁교외	-10.9375
▁이내에	-10.9378
▁취급	-10.9379
▁For	-10.9379
▁예배	-10.9381
▁후송	-10.9392
▁업적	-10.9393
Con	-10.9394
▁공안	-10.9394
▁완성	-10.9395
▁양쪽	-10.9395
▁총통	-10.9396
▁부당	-10.9397
▁아담	-10.9398
▁포터	-10.9406
▁복원	-10.9413
▁차질	-10.9419
▁남자아이	-10.9424
▁물체	-10.9429
▁상당수	-10.9469
▁상금	-10.9479
▁동료들	-10.948
▁남아있다	-10.9485
▁관객	-10.9495
has	-10.9496
▁목격했다	-10.9528
눈	-10.9532
태평양	-10.9533
올림픽	-10.9534
팔레스타인	-10.9534
UN	-10.9544
ty	-10.9547
▁악화되	-10.9552
▁나타났	-10.9557
▁체포되었다	-10.9564
열차	-10.958
레이크	-10.9582
빗	-10.9601
head	-10.9601
·	-10.9601
▁visit	-10.9601
▁나눴다	-10.9601
▁메드베데프	-10.9601
▁않았습니다	-10.9601
▁앞섰다	-10.9601
▁온실가스	-10.9601
▁잃어버	-10.9601
▁최루탄	-10.9601
▁하이브리드	-10.9601
믹	-10.9601
벡	-10.9601
▁Roh	-10.9601
▁글로벌	-10.9601
▁이뤄질	-10.9601
▁국정원	-10.9601
▁해수면	-10.9601
▁오렌지	-10.9601
MDC	-10.9601
▁우간다	-10.9601
▁개체수	-10.9602
▁교착상태	-10.9602
▁에드워드	-10.9602
▁유명인사	-10.9602
▁첩보	-10.9602
▁염려	-10.9602
됨에따라	-10.9602
▁워너	-10.9602
▁수색작업	-10.9603
▁재미있	-10.9603
▁아마존	-10.9603
▁동물들	-10.9604
▁its	-10.9605
▁권총	-10.9606
▁금융위기	-10.9606
▁고조되	-10.9606
▁급습	-10.9607
▁톰슨	-10.9608
▁줄이기	-10.961
▁갈등	-10.9611
▁호송	-10.9613
▁갑작스	-10.9613
▁송금	-10.9614
▁60%	-10.9615
▁금속	-10.9616
▁지역사회	-10.9616
▁모욕	-10.9618
▁연구원은	-10.962
▁추격	-10.9621
▁데리고	-10.9623
▁밝혀내	-10.9623
▁실현	-10.9624
▁매매	-10.9628
▁둔화	-10.963
▁증진	-10.9633
▁연출	-10.9633
▁정밀	-10.9634
▁제작사	-10.9643
▁포스트	-10.9644
번호	-10.9645
▁군사력	-10.9649
▁20%	-10.9656
▁보증	-10.9658
▁부처	-10.9664
Pro	-10.9664
▁장려	-10.9669
▁고안	-10.9675
▁해저	-10.9676
OS	-10.9697
▁수행하	-10.9706
▁응답	-10.973
▁남부지역	-10.9732
ame	-10.9733
▁참가자들	-10.9738
air	-10.9743
97	-10.9753
▁남측	-10.9759
▁위험성	-10.9767
▁판매량	-10.9773
▁열었다	-10.9782
딸	-10.979
▁종교적	-10.9814
유엔	-10.9822
ung	-10.9834
ah	-10.9843
똑	-10.985
숭	-10.9851
샘	-10.9851
▁국제우주정거장	-10.9851
FIFA	-10.9851
▁IBM	-10.9851
▁IMF	-10.9851
▁국가비상사태	-10.9851
▁디스커버리	-10.9851
▁메릴랜드	-10.9851
▁서브프라임	-10.9851
▁파파라치	-10.9851
눌	-10.9851
퀘	-10.9851
▁무장괴한	-10.9851
▁바티칸	-10.9851
▁미성년자	-10.9851
▁깨끗	-10.9851
▁재배치	-10.9851
▁윈도우	-10.9851
▁주유소	-10.9851
▁좌석	-10.9852
▁야생동물	-10.9852
▁똑같	-10.9852
▁자전거	-10.9852
▁치솟	-10.9852
▁바꿀	-10.9852
▁퇴진	-10.9852
▁데뷔	-10.9853
▁켈리	-10.9854
▁국민투표	-10.9854
▁행렬	-10.9854
▁긴밀	-10.9854
time	-10.9855
▁인접	-10.9857
▁Ex	-10.9857
▁동참	-10.9859
▁다룬	-10.9862
▁가택	-10.9863
lay	-10.9866
▁유괴	-10.9867
▁설계	-10.9872
▁서식하	-10.9872
▁단독	-10.9873
▁절약	-10.9874
성근	-10.9879
▁위생	-10.9892
▁연임	-10.9893
▁야구	-10.9898
ease	-10.9909
▁상병	-10.9912
▁공무원	-10.9922
ER	-10.9923
▁발생했	-10.9931
▁해적들	-10.9946
벨리	-10.9947
▁석방됐다	-10.9955
연승	-10.9985
▁의심되	-10.9986
▁pre	-10.9987
▁출장	-11.0012
환경	-11.0076
있으며	-11.0086
▁경영자	-11.0105
멈	-11.0108
▁Minister	-11.0108
▁믿는다	-11.0108
▁버몬트	-11.0108
▁아웅산수치	-11.0108
▁인명피해	-11.0108
▁자원봉사	-11.0108
▁창기라이	-11.0108
굿	-11.0108
랫	-11.0108
렁	-11.0108
팜	-11.0108
▁AIG	-11.0108
▁선거관리위원회	-11.0108
▁국세청	-11.0108
▁최우선	-11.0108
▁세속주의	-11.0108
▁모니터	-11.0108
▁윈프리	-11.0108
▁1986	-11.0108
▁언덕	-11.0108
▁적합한	-11.0108
▁아스날	-11.0108
▁국무총리	-11.0108
▁내무장관	-11.0108
▁시티그룹	-11.0108
▁포셋	-11.011
▁던졌다	-11.011
▁주차장	-11.011
▁구조작업	-11.0111
▁앨런	-11.0111
▁숙박	-11.0111
▁재활용	-11.0112
▁환율	-11.0112
▁개막식	-11.0113
▁메이저	-11.0113
▁돌아갈	-11.0114
▁산맥	-11.0114
▁돌아왔다	-11.0114
▁윌슨	-11.0114
▁교착	-11.0118
바라데이	-11.012
▁걸렸다	-11.0121
▁존스턴	-11.0121
▁창설	-11.0123
▁역임	-11.0124
▁약혼	-11.0125
▁않습니다	-11.0125
▁투표율	-11.0125
▁못했지만	-11.0126
▁시민권	-11.0129
▁연말	-11.0129
▁by	-11.0131
▁던진	-11.0131
▁심판	-11.0138
▁발령	-11.0138
▁발견되지	-11.014
▁찾아내	-11.014
▁여러번	-11.0145
▁모집	-11.0149
▁시골	-11.0156
▁불가능하다	-11.0188
투데이	-11.019
▁파커	-11.0205
▁불과하다	-11.0211
▁인정받	-11.0218
▁관객들	-11.0232
▁사용자들	-11.025
사이트	-11.0291
휘	-11.0311
ney	-11.0315
DR	-11.0316
아프리카	-11.0321
말리키	-11.0323
빅	-11.0323
FBI	-11.0323
잘	-11.0324
뉴욕	-11.0326
▁토대	-11.0327
보고서	-11.0327
시즌	-11.033
전략	-11.0334
▁진행중	-11.0335
관광	-11.0346
꼬	-11.037
▁Seoul	-11.0371
▁박격포	-11.0371
▁스타벅스	-11.0371
▁없애	-11.0371
▁켄터키	-11.0371
▁호나우두	-11.0371
▁후지모리	-11.0371
깁	-11.0371
껏	-11.0371
둑	-11.0371
섞	-11.0371
왁	-11.0371
캄	-11.0371
▁토크쇼	-11.0371
▁음주운전	-11.0371
▁개헌안	-11.0371
WTO	-11.0371
▁워렌	-11.0372
▁고유가	-11.0372
▁포획	-11.0373
▁터뜨	-11.0373
▁자동차업계	-11.0373
▁기획	-11.0374
▁가끔	-11.0374
▁가져올	-11.0375
▁안드레	-11.0375
▁돌아올	-11.0376
▁군중들	-11.0377
▁지원금	-11.0378
▁정상들	-11.0379
▁자발적	-11.038
▁연구결과	-11.038
▁드레스	-11.0382
▁로켓포	-11.0382
▁포경선	-11.0382
▁카라치	-11.0385
놨다	-11.0385
▁클라크	-11.0387
▁처형	-11.0388
▁연극	-11.0389
▁참배	-11.0389
▁결합	-11.039
▁치매	-11.0392
▁독감	-11.0394
▁던져	-11.0395
▁대변	-11.0395
▁마찰	-11.0397
▁매입	-11.0397
까요	-11.04
▁넣었다	-11.0401
▁설정	-11.0409
▁맞았다	-11.0411
▁코너	-11.0412
▁밀러	-11.0415
▁유입	-11.0427
▁전형적	-11.0429
▁일시적	-11.0475
En	-11.0499
ile	-11.0502
물리학	-11.0515
그것은	-11.0601
착륙	-11.0602
3000	-11.0605
냥	-11.0635
▁Bush	-11.0641
▁개발도상국	-11.0641
▁러닝메이트	-11.0641
▁맨해튼	-11.0641
▁슈퍼볼	-11.0641
▁애완동물	-11.0641
▁활성화	-11.0641
궐	-11.0641
끔찍한	-11.0641
닭	-11.0641
쉐	-11.0641
킥	-11.0641
퓨	-11.0641
▁유람선	-11.0641
▁비공식	-11.0641
▁라호르	-11.0641
▁섹시	-11.0641
▁하버드	-11.0641
APEC	-11.0641
▁남아프리카공화국	-11.0641
▁넬슨	-11.0641
▁라모스	-11.0641
▁기다려	-11.0641
▁알제리	-11.0642
▁브레이크	-11.0642
▁미주리	-11.0644
▁침수	-11.0644
able	-11.0645
▁밝혀냈다	-11.0646
▁머레이	-11.0646
▁시민단체	-11.0647
▁통근	-11.0647
▁미셸	-11.0648
▁생명체	-11.0653
▁외쳤다	-11.0654
▁승점	-11.0657
▁아빠	-11.0659
▁탈레반측	-11.0659
▁이어졌다	-11.0665
▁응원	-11.0665
▁대테러	-11.0666
▁연령	-11.0667
▁기념식	-11.067
▁진료	-11.0671
▁불안정	-11.0672
▁발매	-11.0674
▁만료	-11.0678
▁재정적	-11.068
▁철수시키	-11.0693
▁있음	-11.0713
▁사라진	-11.0737
▁화제	-11.0745
▁war	-11.0747
tions	-11.0787
ick	-11.0828
대원들	-11.0842
륙	-11.0861
▁지냈	-11.0875
클린턴	-11.0887
잠	-11.0887
▁지속되	-11.0897
▁이민자들	-11.0902
겔	-11.0919
▁최고경영자	-11.0919
3,000	-11.0919
▁고등법원	-11.0919
▁느낀다	-11.0919
▁디트로이트	-11.0919
▁럼스펠드	-11.0919
▁억만장자	-11.0919
▁텔레비전	-11.0919
▁피츠버그	-11.0919
▁헬리콥터	-11.0919
닛	-11.0919
잎	-11.0919
헴	-11.0919
▁스탈린	-11.0919
▁브루니	-11.0919
▁근본주의	-11.0919
▁덴버	-11.0919
▁미시건	-11.0919
▁코카인	-11.0919
▁낭비	-11.0919
▁딜러	-11.0919
▁티벳	-11.0919
▁돌아다니	-11.0919
▁왜곡	-11.092
▁친환경	-11.0921
▁텐트	-11.0921
▁요르단강	-11.0922
▁장벽	-11.0923
▁동굴	-11.0923
▁이른다	-11.0923
▁대선주자	-11.0925
▁다가오	-11.0926
▁70%	-11.0926
reat	-11.0928
▁구호품	-11.0929
▁눈물	-11.093
▁복합	-11.0931
▁그곳에서	-11.0933
ash	-11.0937
▁절감	-11.0938
▁생겨	-11.0938
▁치른	-11.0939
▁불황	-11.0939
▁소총	-11.0941
▁위축	-11.0942
▁추천	-11.0945
▁기름	-11.0947
▁휴식	-11.0947
▁유명하다	-11.099
웃	-11.1017
▁과제	-11.1022
소득	-11.1051
▁시청자들	-11.106
▁남성들	-11.1105
보좌관	-11.118
▁브랜	-11.1187
비행기	-11.1204
▁끝났다	-11.1205
▁버냉키	-11.1205
▁스튜디오	-11.1205
▁안토니오	-11.1205
前	-11.1205
뚜	-11.1205
빵	-11.1205
펙	-11.1205
▁느껴	-11.1205
▁부양책	-11.1205
▁침묵	-11.1205
▁브래드	-11.1205
▁규칙	-11.1205
▁반체제	-11.1205
▁take	-11.1205
▁예선전	-11.1205
▁바하마	-11.1205
▁유수프	-11.1205
▁태우고	-11.1205
▁국방위원장	-11.1205
▁스콧	-11.1206
▁놀랄	-11.1207
▁휴스턴	-11.1208
▁집필	-11.1212
▁90%	-11.1213
봐야	-11.1214
▁장거리	-11.1219
▁화석	-11.122
▁새겨	-11.1231
▁보조금	-11.1232
▁comm	-11.1289
아웃	-11.1316
▁공무원들	-11.1416
▁입었	-11.1432
▁복장	-11.1459
▁민간인들	-11.1475
▁조씨	-11.1481
▁자녀들	-11.1481
또	-11.1485
▁난민들	-11.1494
셋	-11.1496
뮤	-11.1499
▁마이스페이스	-11.1499
뚱	-11.1499
▁military	-11.1499
▁괜찮	-11.1499
▁끊임없	-11.1499
▁내셔널	-11.1499
▁뒷받침	-11.1499
▁마케팅	-11.1499
▁애틀랜타	-11.1499
▁에르도간	-11.1499
▁엔지니어	-11.1499
▁풀려났다	-11.1499
down	-11.1499
▁브리트니	-11.1499
▁호날두	-11.1499
맘	-11.1499
▁기준금리	-11.1499
▁무소속	-11.1499
덩어리	-11.1499
▁코스피	-11.1499
▁1-0	-11.1499
▁기뻐	-11.1499
▁퇴역	-11.1499
▁나눠	-11.1499
▁좌파	-11.15
▁신용카드	-11.15
▁바바라	-11.15
▁밝혔으나	-11.1501
▁요즘	-11.1501
▁재활	-11.1503
9000	-11.1504
▁화염	-11.1504
되었는데	-11.1504
▁Day	-11.1504
▁미치지	-11.1505
▁소방대원	-11.1505
▁조짐	-11.1508
▁때문입니다	-11.1509
▁영광	-11.1509
▁월터	-11.1509
▁방문객들	-11.151
ook	-11.1511
▁돌아온	-11.1512
▁경제학자들	-11.1512
▁도핑	-11.1512
▁레이저	-11.1512
▁대기업	-11.1519
▁로렌	-11.1523
▁배심원단	-11.1538
▁좋아한다	-11.1588
▁주주들	-11.1589
▁스카이	-11.1598
▁제조업	-11.1636
▁선원들	-11.1672
타이거	-11.1723
▁은행들	-11.1761
탈리아	-11.1791
▁그곳에	-11.1792
몸	-11.1796
알카에다	-11.1797
스페인	-11.1798
끔	-11.1798
▁득표	-11.1802
옐	-11.1802
▁원자바오	-11.1802
늄	-11.1802
셈	-11.1802
톡	-11.1802
풋	-11.1802
▁Show	-11.1802
▁가즈프롬	-11.1802
▁골든글로브	-11.1802
▁베탕쿠르	-11.1802
▁애니메이션	-11.1802
▁엘리베이터	-11.1802
▁일으켜	-11.1802
▁캔자스	-11.1802
▁테러지원국	-11.1802
긋	-11.1802
륜	-11.1802
셜	-11.1802
쩌	-11.1802
▁되돌아	-11.1802
▁시애틀	-11.1802
캘	-11.1802
▁아칸소	-11.1802
▁미끄러	-11.1802
▁얼룩	-11.1802
▁식민지	-11.1802
▁맥케인	-11.1802
▁받아들였다	-11.1802
▁1988	-11.1802
스프링스	-11.1802
▁고릴라	-11.1802
▁혈액	-11.1802
▁관점에서	-11.1802
▁크레이그	-11.1802
▁양키스	-11.1802
▁트로피	-11.1802
▁논문	-11.1802
▁인도주의적	-11.1802
▁북극곰	-11.1802
▁멸종위기	-11.1803
▁차원에서	-11.1803
▁유적지	-11.1803
▁몸값	-11.1804
▁군사작전	-11.1806
▁가죽	-11.1807
▁운반	-11.1807
▁적응	-11.1807
▁현지경찰	-11.1809
▁저택	-11.181
▁폭등	-11.1812
▁숨겨	-11.1813
▁패리스	-11.1813
▁대략	-11.1813
▁남녀	-11.1814
▁개념	-11.1814
▁입었으며	-11.1818
▁출범	-11.1818
되었지만	-11.1833
▁보좌관들	-11.189
있거나	-11.1909
아이들	-11.1915
▁싶어한다	-11.1917
▁벌어졌	-11.2061
▁기본적	-11.2068
쁜	-11.2108
댐	-11.2114
▁troops	-11.2114
▁구호물품	-11.2114
▁국회의사당	-11.2114
▁느꼈다	-11.2114
▁다운로드	-11.2114
▁맥도날드	-11.2114
▁머리카락	-11.2114
▁베어스턴스	-11.2114
▁슈퍼대의원	-11.2114
▁에스토니아	-11.2114
▁티셔츠	-11.2114
▁펭귄	-11.2114
▁평화협상	-11.2114
썩	-11.2114
홉	-11.2114
▁덕분에	-11.2114
▁베이루트	-11.2114
▁비즈니스	-11.2114
NFL	-11.2114
▁have	-11.2114
▁니케이	-11.2114
▁칭찬	-11.2114
▁그린피스	-11.2114
▁착취	-11.2114
▁추산했다	-11.2114
WFP	-11.2114
▁2008.11	-11.2114
▁대한민국	-11.2114
▁상반기	-11.2114
▁실업수당	-11.2114
▁간호사	-11.2115
▁소탕작전	-11.2115
▁바꿔	-11.2115
▁진흙	-11.2116
▁마사지	-11.2117
line	-11.2118
▁묘지	-11.2118
▁충족	-11.2118
▁오늘밤	-11.2119
▁동유럽	-11.2119
▁취득	-11.2119
▁같습니다	-11.2122
▁하얀	-11.2123
▁명칭	-11.2129
▁모르겠다	-11.2154
ext	-11.2162
론자들	-11.2244
▁김씨	-11.2332
ator	-11.2397
붕	-11.243
▁유니세프	-11.2437
돋	-11.2437
▁Secretary	-11.2437
▁로스앤젤레스	-11.2437
▁모가디슈	-11.2437
▁상관없이	-11.2437
▁오케스트라	-11.2437
▁이르기까지	-11.2437
▁이르렀다	-11.2437
▁천문학자들	-11.2437
▁칸다하르	-11.2437
▁크로아티아	-11.2437
▁트라볼타	-11.2437
쉴	-11.2437
쯔	-11.2437
핏	-11.2437
▁브리티시	-11.2437
▁황우석	-11.2437
▁AFP	-11.2437
▁무너져	-11.2437
▁항생제	-11.2437
▁정해지지	-11.2437
▁집무실	-11.2437
▁계열사	-11.2437
▁가속화	-11.2437
▁되풀이	-11.2437
▁매머드	-11.2437
▁어두운	-11.2437
▁중산층	-11.2437
▁1/4	-11.2437
▁크로커	-11.2437
마누엘	-11.2437
▁국가주석	-11.2437
▁다행히	-11.2437
▁1981	-11.2437
▁3-0	-11.2437
▁세비야	-11.2437
▁대주교	-11.2437
▁유조선	-11.2437
▁흐름	-11.2437
스트리트	-11.2437
▁브루스	-11.2437
▁침범	-11.2437
(25)	-11.2438
▁히드로	-11.2438
사령부	-11.2439
▁공군기지	-11.2439
▁맞붙	-11.2439
▁벌어들	-11.2439
▁잔혹	-11.244
▁효력	-11.244
▁피닉스호	-11.244
▁면접	-11.2442
▁프린스	-11.2443
▁comp	-11.2444
▁요새	-11.2445
▁녹색	-11.2445
ncy	-11.2448
붙	-11.2449
FARC	-11.2452
폭탄테러	-11.2453
검찰	-11.2458
▁국회의원들	-11.248
스러워	-11.2495
회사들	-11.2496
▁전설적	-11.2503
=	-11.2694
▁Foreign	-11.277
▁attack	-11.277
▁글래스고	-11.277
▁상파울루	-11.277
▁스튜어트	-11.277
▁야스쿠니	-11.277
▁우주정거장	-11.277
▁인종차별	-11.277
▁카자흐스탄	-11.277
▁커뮤니티	-11.277
▁힌두교	-11.277
윗	-11.277
▁양육권	-11.277
&#82	-11.277
▁광우병	-11.277
▁당나귀	-11.277
▁수퍼대의원	-11.277
▁왕복선	-11.277
▁몸무게	-11.277
▁부작용	-11.277
▁kill	-11.277
▁마라도나	-11.277
▁무너진	-11.277
▁예언자	-11.277
인디아나	-11.277
ough	-11.277
▁몬테	-11.277
▁닉슨	-11.277
▁일축했다	-11.2771
▁카지노	-11.2771
▁물리치	-11.2771
▁침투	-11.2771
▁모로코	-11.2771
▁교과서	-11.2771
▁쇼핑몰	-11.2772
▁동북아	-11.2772
▁State	-11.2772
▁수비수	-11.2772
▁높아졌다	-11.2774
▁쿠르드족	-11.2774
▁도와주	-11.2775
▁있었는지	-11.2776
▁활기	-11.2777
▁필리스	-11.2778
▁열렬	-11.2779
▁do	-11.2792
▁극단주의자들	-11.2793
넘	-11.2795
뼈	-11.2796
CIA	-11.2797
▁동맹국들	-11.2808
▁이례적	-11.2816
▁일상적	-11.2864
oint	-11.288
▁회원들	-11.2883
▁효율	-11.289
▁여자아이	-11.29
▁효율적	-11.2992
▁파손되	-11.3002
dge	-11.3083
멍	-11.3111
쿼	-11.3115
▁Party	-11.3115
▁election	-11.3115
▁leader	-11.3115
▁protest	-11.3115
▁뉴캐슬	-11.3115
▁동계올림픽	-11.3115
▁매코맥	-11.3115
▁맥코맥	-11.3115
▁미드필더	-11.3115
▁세계보건기구	-11.3115
▁악영향	-11.3115
▁암스트롱	-11.3115
▁친선경기	-11.3115
▁포괄적	-11.3115
넥	-11.3115
돔	-11.3115
엽	-11.3115
옵	-11.3115
팽	-11.3115
▁도미니카	-11.3115
▁촛불	-11.3115
▁종신형	-11.3115
▁앵커	-11.3115
▁여배우	-11.3115
▁도널드	-11.3115
▁바쿠바	-11.3115
▁총기난사	-11.3115
▁빠뜨	-11.3115
PML	-11.3115
▁아스널	-11.3115
▁제니퍼	-11.3115
▁안락사	-11.3115
▁흥행	-11.3115
▁린제이	-11.3115
▁틀림	-11.3115
▁속옷	-11.3116
▁맹세	-11.3116
▁여파로	-11.3116
▁크라우	-11.3116
▁꼬리	-11.3116
▁퇴직	-11.3116
▁기후변화	-11.3116
▁중서부	-11.3116
▁품질	-11.3117
▁둘째	-11.3117
▁수하물	-11.3118
▁계곡	-11.3118
▁개최되	-11.3119
▁퇴장	-11.3119
흙	-11.347
팟	-11.3472
꽤	-11.3472
뻔	-11.3472
•	-11.3472
팍	-11.3472
▶	-11.3472
갓	-11.3842
띠	-11.3842
볍	-11.3842
삽	-11.3842
팰	-11.3842
깜	-11.3842
둬	-11.3842
꾸	-11.3898
헬	-11.3907
땅	-11.3907
덮	-11.3919
겹	-11.4227
놔	-11.4227
푼	-11.4227
퉁	-11.4227
큰	-11.431
콕	-11.4625
낫	-11.4627
뇨	-11.4627
듬	-11.4627
딱	-11.4627
룽	-11.4627
멧	-11.4627
멕	-11.4627
찔	-11.4627
탬	-11.4627
획	-11.5031
뭇	-11.5044
켐	-11.5044
뭉	-11.5044
솜	-11.5044
츨	-11.5044
캣	-11.5044
콥	-11.5044
펫	-11.5044
쿤	-11.5044
딕	-11.5157
몇	-11.5157
앨	-11.516
롯	-11.5472
옌	-11.5479
짙	-11.5479
튠	-11.5479
촨	-11.5479
즐	-11.5614
넓	-11.5624
됨	-11.5931
벳	-11.5932
뉘	-11.5933
앵	-11.5933
긍	-11.5933
츄	-11.5933
훌	-11.5933
덱	-11.5933
둠	-11.5933
밭	-11.5933
쥬	-11.5933
쳇	-11.5933
홈	-11.6088
톰	-11.6091
윌	-11.6097
므	-11.6173
뷔	-11.6406
봇	-11.6407
앗	-11.6409
툰	-11.6409
윙	-11.6409
꼈	-11.6409
덟	-11.6409
볕	-11.6409
봅	-11.6409
뒤	-11.6591
욱	-11.69
샴	-11.6909
콴	-11.6909
굽	-11.6909
낀	-11.6909
맙	-11.6909
쩔	-11.6909
앞	-11.7079
꿈	-11.7117
왜	-11.7118
끝	-11.7118
룡	-11.7431
늬	-11.7436
뜯	-11.7436
럿	-11.7436
륭	-11.7436
벵	-11.7436
빔	-11.7436
폼	-11.7436
낙	-11.767
떠	-11.7671
즌	-11.7971
헝	-11.7991
캇	-11.7991
흠	-11.7991
잇	-11.8261
셸	-11.8564
反	-11.8579
샨	-11.8579
英	-11.8579
뚝	-11.8579
띤	-11.8579
쉘	-11.8579
팻	-11.8579
퐁	-11.8579
깅	-11.8579
깊	-11.8883
섯	-11.9196
콧	-11.92
쑤	-11.9204
市	-11.9204
룻	-11.9204
윅	-11.9204
펑	-11.9204
늑	-11.9204
랏	-11.9204
팡	-11.9204
텀	-11.9204
듀	-11.955
솟	-11.9869
댈	-11.9871
줌	-11.9871
둡	-11.9871
엉	-11.9871
옴	-11.9871
쟈	-11.9871
뎌	-11.9871
녹	-12.0264
숨	-12.0266
첫	-12.0268
껴	-12.0585
헥	-12.0585
눕	-12.0585
뜰	-12.0585
랴	-12.0585
뭘	-12.0585
샵	-12.0585
샹	-12.0585
셍	-12.0585
쿡	-12.0585
듭	-12.135
故	-12.1355
륨	-12.1355
샷	-12.1355
쏠	-12.1355
씬	-12.1355
쥔	-12.1355
퍽	-12.1355
性	-12.1355
뎀	-12.1355
싹	-12.1355
쪼	-12.1355
챈	-12.1355
쓸	-12.1869
벗	-12.1869
웹	-12.187
즉	-12.187
횡	-12.2188
新	-12.2188
엿	-12.2188
핼	-12.2188
넛	-12.2188
랠	-12.2188
벙	-12.2188
삐	-12.2188
싯	-12.2188
엣	-12.2188
젼	-12.2188
줍	-12.2188
칫	-12.2188
쿵	-12.2188
옷	-12.2778
겸	-12.2778
묻	-12.2779
q	-12.3093
궂	-12.3097
녕	-12.3097
렝	-12.3097
밥	-12.3778
벼	-12.4093
훼	-12.4097
펭	-12.4097
깨	-12.4887
좁	-12.4889
美	-12.489
낮	-12.489
곧	-12.4891
섹	-12.5172
냄	-12.5208
찮	-12.5208
갖	-12.6133
꼭	-12.6139
묵	-12.6139
샌	-12.614
좀	-12.614
놨	-12.6386
휠	-12.6458
뛰	-12.7568
쌀	-12.7568
맛	-12.7568
멀	-12.7568
탤	-12.7887
촛	-12.9553
낄	-12.9553
셴	-12.9553
귄	-12.9553
쓴	-13.1235
밑	-13.1235
삶	-13.1236
꿀	-13.1545
맡	-13.3731
큼	-13.4034
꿔	-13.4045
눠	-13.4047
뻐	-13.4048
숫	-13.4051
덧	-13.4053
*	-13.7069
뜻	-13.707
룹	-13.7361
끗	-13.7386
걱	-13.7386
빚	-14.2073
밝	-14.2074
맺	-14.2074
힉	-14.2384
많	-15.1996
숀	-15.2092
봄	-15.2092
끓	-15.2172
갚	-15.2173
쾰	-15.2174
찼	-15.2175
찢	-15.2176
잰	-15.2177
웸	-15.2178
샐	-15.2179
깥	-15.218
겉	-15.2181
팸	-15.2182
몹	-15.2183
꼴	-15.2184
씌	-15.2185
맷	-15.2186
뀐	-15.2187
깎	-15.2188
콸	-15.2189
쏴	-15.219
썹	-15.2191
슭	-15.2192
킷	-15.2193
챌	-15.2194
얇	-15.2195
씀	-15.2196
뀔	-15.2197
꽉	-15.2198
꽂	-15.2199
±	-15.22
뭐	-15.2201
댕	-15.2202
꿨	-15.2203
꾀	-15.2204
깐	-15.2205
얹	-15.2206
쐈	-15.2207
뱃	-15.2208
긱	-15.2209
씻	-15.221
뻗	-15.2211
렷	-15.2212
낚	-15.2213
꼼	-15.2214
$	-15.2215
잦	-15.2216
엎	-15.2217
숍	-15.2218
뭔	-15.2219
맑	-15.222
핫	-15.2221
핍	-15.2222
몫	-15.2223
짖	-15.2224
샀	-15.2225
낡	-15.2226
곁	-15.2227
컸	-15.2228
캡	-15.2229
쏜	-15.223
젭	-15.2231
싣	-15.2232
맵	-15.2233
닮	-15.2234
젖	-15.2235
쁨	-15.2236
릅	-15.2237
궈	-15.2238
탓	-15.2239
캥	-15.224
웍	-15.2241
굶	-15.2242
뮬	-15.2243
릇	-15.2244
횟	-15.2245
췌	-15.2246
틈	-15.2247
댓	-15.2248
붓	-15.2249
́	-15.225
챙	-15.2251
앰	-15.2252
닿	-15.2253
펌	-15.2254
흩	-15.2255
뮌	-15.2256
뤼	-15.2257
뿔	-15.2258
괜	-15.2259
뤘	-15.226
튀	-15.2261
꼽	-15.2262
굳	-15.2263
굉	-15.2264
녔	-15.2265
랬	-15.2266
곱	-15.2267
픔	-15.2268
밸	-15.2269
닙	-15.227
낌	-15.2271
띄	-15.2272
넹	-15.2273
밟	-15.2274
눴	-15.2275
싫	-15.2276
윔	-15.2277
괄	-15.2278
옛	-15.2279
탔	-15.228
썼	-15.2281
핸	-15.2282
딪	-15.2283
잊	-15.2284
깝	-15.2285
멤	-15.2286
벅	-15.2287
흰	-15.2288
갇	-15.2289
췄	-15.229
묶	-15.2291
뱅	-15.2292
닫	-15.2293
왼	-15.2294
뀌	-15.2295
렴	-15.2296
읽	-15.2297
깔	-15.2298
궤	-15.2299
탱	-15.23
탠	-15.2301
쌓	-15.2302
쫓	-15.2303
짧	-15.2304
쏟	-15.2305
뭄	-15.2306
뒷	-15.2307
걷	-15.2308
슴	-15.2309
훨	-15.231
릎	-15.2311
뽑	-15.2312
뿌	-15.2313
붉	-15.2314
앓	-15.2315
얘	-15.2316
옆	-15.2317
멋	-15.2318
꺾	-15.2319
낳	-15.232
곽	-15.2321
휩	-15.2322
돕	-15.2323
녁	-15.2324
듣	-15.2325
춰	-15.2326
끊	-15.2327
됩	-15.2328
젝	-15.2329
늦	-15.233
앉	-15.2331
슷	-15.2332
렵	-15.2333
쿄	-15.2334
밴	-15.2335
옮	-15.2336
봤	-15.2337
젊	-15.2338
챔	-15.2339
촬	-15.234
빨	-15.2341
찍	-15.2342
떻	-15.2343
렀	-15.2344
웠	-15.2345
겪	-15.2346
믿	-15.2347
펼	-15.2348
섰	-15.2349
먹	-15.235
렇	-15.2351
̋	-15.2352
잃	-15.2353
캠	-15.2354
싶	-15.2355
랐	-15.2356
끌	-15.2357
갔	-15.2358
켰	-15.2359
밖	-15.236
얻	-15.2361
쇄	-15.2362
좋	-15.2363
찾	-15.2364
떨	-15.2365
높	-15.2366
맞	-15.2367
났	-15.2368
혐	-15.2369
협	-15.237
확	-15.2371
없	-15.2372
떤	-15.2373
았	-15.2373
